{
  "version": "1.0",
  "truncation": null,
  "padding": null,
  "added_tokens": [
    {
      "id": 0,
      "content": "[PAD]",
      "single_word": false,
      "lstrip": false,
      "rstrip": false,
      "normalized": false,
      "special": true
    },
    {
      "id": 1,
      "content": "[UNK]",
      "single_word": false,
      "lstrip": false,
      "rstrip": false,
      "normalized": false,
      "special": true
    },
    {
      "id": 2,
      "content": "[BOS]",
      "single_word": false,
      "lstrip": false,
      "rstrip": false,
      "normalized": false,
      "special": true
    },
    {
      "id": 3,
      "content": "[EOS]",
      "single_word": false,
      "lstrip": false,
      "rstrip": false,
      "normalized": false,
      "special": true
    }
  ],
  "normalizer": null,
  "pre_tokenizer": {
    "type": "ByteLevel",
    "add_prefix_space": true,
    "trim_offsets": true,
    "use_regex": true
  },
  "post_processor": null,
  "decoder": {
    "type": "ByteLevel",
    "add_prefix_space": true,
    "trim_offsets": true,
    "use_regex": true
  },
  "model": {
    "type": "BPE",
    "dropout": null,
    "unk_token": "[UNK]",
    "continuing_subword_prefix": null,
    "end_of_word_suffix": null,
    "fuse_unk": false,
    "byte_fallback": false,
    "ignore_merges": false,
    "vocab": {
      "[PAD]": 0,
      "[UNK]": 1,
      "[BOS]": 2,
      "[EOS]": 3,
      "!": 4,
      "\"": 5,
      "#": 6,
      "$": 7,
      "%": 8,
      "&": 9,
      "'": 10,
      "(": 11,
      ")": 12,
      "*": 13,
      "+": 14,
      ",": 15,
      "-": 16,
      ".": 17,
      "/": 18,
      "0": 19,
      "1": 20,
      "2": 21,
      "3": 22,
      "4": 23,
      "5": 24,
      "6": 25,
      "7": 26,
      "8": 27,
      "9": 28,
      ":": 29,
      ";": 30,
      "<": 31,
      "=": 32,
      ">": 33,
      "?": 34,
      "@": 35,
      "A": 36,
      "B": 37,
      "C": 38,
      "D": 39,
      "E": 40,
      "F": 41,
      "G": 42,
      "H": 43,
      "I": 44,
      "J": 45,
      "K": 46,
      "L": 47,
      "M": 48,
      "N": 49,
      "O": 50,
      "P": 51,
      "Q": 52,
      "R": 53,
      "S": 54,
      "T": 55,
      "U": 56,
      "V": 57,
      "W": 58,
      "X": 59,
      "Y": 60,
      "Z": 61,
      "[": 62,
      "\\": 63,
      "]": 64,
      "^": 65,
      "_": 66,
      "`": 67,
      "a": 68,
      "b": 69,
      "c": 70,
      "d": 71,
      "e": 72,
      "f": 73,
      "g": 74,
      "h": 75,
      "i": 76,
      "j": 77,
      "k": 78,
      "l": 79,
      "m": 80,
      "n": 81,
      "o": 82,
      "p": 83,
      "q": 84,
      "r": 85,
      "s": 86,
      "t": 87,
      "u": 88,
      "v": 89,
      "w": 90,
      "x": 91,
      "y": 92,
      "z": 93,
      "{": 94,
      "|": 95,
      "}": 96,
      "~": 97,
      "¡": 98,
      "¢": 99,
      "£": 100,
      "¤": 101,
      "¥": 102,
      "¦": 103,
      "§": 104,
      "¨": 105,
      "©": 106,
      "ª": 107,
      "«": 108,
      "¬": 109,
      "®": 110,
      "¯": 111,
      "°": 112,
      "±": 113,
      "²": 114,
      "³": 115,
      "´": 116,
      "µ": 117,
      "¶": 118,
      "·": 119,
      "¸": 120,
      "¹": 121,
      "º": 122,
      "»": 123,
      "¼": 124,
      "½": 125,
      "¾": 126,
      "¿": 127,
      "Â": 128,
      "Ã": 129,
      "Ä": 130,
      "Å": 131,
      "Æ": 132,
      "Ç": 133,
      "È": 134,
      "É": 135,
      "Ê": 136,
      "Ë": 137,
      "Ì": 138,
      "Í": 139,
      "Î": 140,
      "Ï": 141,
      "Ð": 142,
      "Ñ": 143,
      "Ò": 144,
      "Ó": 145,
      "Ô": 146,
      "Õ": 147,
      "Ö": 148,
      "×": 149,
      "Ø": 150,
      "Ù": 151,
      "Ú": 152,
      "Û": 153,
      "Ü": 154,
      "Ý": 155,
      "Þ": 156,
      "ß": 157,
      "à": 158,
      "á": 159,
      "â": 160,
      "ã": 161,
      "ä": 162,
      "å": 163,
      "æ": 164,
      "ç": 165,
      "è": 166,
      "é": 167,
      "ê": 168,
      "ë": 169,
      "ì": 170,
      "í": 171,
      "î": 172,
      "ï": 173,
      "ð": 174,
      "ó": 175,
      "ô": 176,
      "ĉ": 177,
      "Ċ": 178,
      "Ġ": 179,
      "Ģ": 180,
      "ģ": 181,
      "Ĥ": 182,
      "ĥ": 183,
      "Ħ": 184,
      "ħ": 185,
      "Ĩ": 186,
      "ĩ": 187,
      "Ī": 188,
      "ī": 189,
      "Ĭ": 190,
      "ĭ": 191,
      "Į": 192,
      "į": 193,
      "İ": 194,
      "ı": 195,
      "Ĳ": 196,
      "ĳ": 197,
      "Ĵ": 198,
      "ĵ": 199,
      "Ķ": 200,
      "ķ": 201,
      "ĸ": 202,
      "Ĺ": 203,
      "ĺ": 204,
      "Ļ": 205,
      "ļ": 206,
      "Ľ": 207,
      "ľ": 208,
      "Ŀ": 209,
      "ŀ": 210,
      "Ł": 211,
      "ł": 212,
      "Ń": 213,
      "Ġt": 214,
      "he": 215,
      "Ġa": 216,
      "in": 217,
      "Ġthe": 218,
      "re": 219,
      "Ġs": 220,
      "Ġw": 221,
      "Ġo": 222,
      "nd": 223,
      "er": 224,
      "at": 225,
      "on": 226,
      "Ġc": 227,
      "Ġb": 228,
      "it": 229,
      "ed": 230,
      "is": 231,
      "ou": 232,
      "Ġf": 233,
      "an": 234,
      "es": 235,
      "en": 236,
      "or": 237,
      "Ġand": 238,
      "Ġp": 239,
      "Ġto": 240,
      "Ġm": 241,
      "ing": 242,
      "ar": 243,
      "Ġd": 244,
      "al": 245,
      "Ġh": 246,
      "Ġof": 247,
      "as": 248,
      "Ġin": 249,
      "Ġl": 250,
      "om": 251,
      "ic": 252,
      "Ġth": 253,
      "il": 254,
      "Ġg": 255,
      "Ġn": 256,
      "le": 257,
      "ion": 258,
      "ĠT": 259,
      "id": 260,
      "Ġe": 261,
      "Ġhe": 262,
      "ent": 263,
      "ay": 264,
      "ve": 265,
      "ro": 266,
      "et": 267,
      "ĠS": 268,
      "us": 269,
      "Ġy": 270,
      "ot": 271,
      "ut": 272,
      "im": 273,
      "ad": 274,
      "ac": 275,
      "Ġre": 276,
      "ow": 277,
      "Ġwas": 278,
      "el": 279,
      "ĠI": 280,
      "Ġis": 281,
      "ig": 282,
      "Ġbe": 283,
      "ly": 284,
      "Ġon": 285,
      "Ġit": 286,
      "ol": 287,
      "ir": 288,
      "Ġyou": 289,
      "am": 290,
      "ver": 291,
      "ĠA": 292,
      "Ġthat": 293,
      "ĠThe": 294,
      "st": 295,
      "Ġst": 296,
      "Ġfor": 297,
      "ct": 298,
      "ur": 299,
      "ĠH": 300,
      "ith": 301,
      "ĠC": 302,
      "ĠM": 303,
      "Ġwith": 304,
      "ce": 305,
      "ch": 306,
      "âĢ": 307,
      "Ġha": 308,
      "un": 309,
      "ation": 310,
      "Ġal": 311,
      "Ġwh": 312,
      "oo": 313,
      "Ġas": 314,
      "her": 315,
      "ul": 316,
      "ĠB": 317,
      "'s": 318,
      "Ġ1": 319,
      "ke": 320,
      "se": 321,
      "Ġan": 322,
      "ter": 323,
      "Ġwe": 324,
      "ld": 325,
      "OT": 326,
      "MOT": 327,
      "Ġr": 328,
      "Ġare": 329,
      "Ġfr": 330,
      "ht": 331,
      "th": 332,
      "ĠL": 333,
      "if": 334,
      "||": 335,
      "pp": 336,
      "Ġ(": 337,
      "ĠP": 338,
      "ant": 339,
      "Ġsa": 340,
      "CH": 341,
      "um": 342,
      "ag": 343,
      "CHI": 344,
      "ain": 345,
      "ill": 346,
      "op": 347,
      "and": 348,
      "Ġk": 349,
      "ore": 350,
      "Ġse": 351,
      "Ġat": 352,
      "Ġor": 353,
      "ist": 354,
      "Ġu": 355,
      "em": 356,
      "Ġ\"": 357,
      "ome": 358,
      "ab": 359,
      "Ġpl": 360,
      "ight": 361,
      "ĠW": 362,
      "ers": 363,
      "Ġnot": 364,
      "Ġher": 365,
      "ri": 366,
      "Ġ2": 367,
      "Ġpro": 368,
      "Ġde": 369,
      "Ġsh": 370,
      "ĠD": 371,
      "Ġne": 372,
      "ould": 373,
      "Ġcon": 374,
      "ĠHe": 375,
      "Ġdo": 376,
      "est": 377,
      "Ġex": 378,
      "ĠO": 379,
      "ie": 380,
      "all": 381,
      "Ġ||": 382,
      "The": 383,
      "pe": 384,
      "Ġfrom": 385,
      "ĠF": 386,
      "Ġcan": 387,
      "ure": 388,
      "Ġthey": 389,
      "ĠE": 390,
      "Ġso": 391,
      "os": 392,
      "ess": 393,
      "Ġhis": 394,
      "Ġhave": 395,
      "ĠR": 396,
      "Ġby": 397,
      "ies": 398,
      "art": 399,
      "fe": 400,
      "ell": 401,
      "ate": 402,
      "Ġcom": 403,
      "qu": 404,
      "ĠN": 405,
      "Ġli": 406,
      "Ġv": 407,
      "Ġch": 408,
      "rou": 409,
      "ĠG": 410,
      "ĠJ": 411,
      "very": 412,
      "red": 413,
      "'t": 414,
      "ud": 415,
      "ap": 416,
      "ren": 417,
      "ard": 418,
      "Ġup": 419,
      "Ġshe": 420,
      "ive": 421,
      "ity": 422,
      "ĠShe": 423,
      "ook": 424,
      "Ġhad": 425,
      "Ġus": 426,
      "ust": 427,
      "00": 428,
      "Ġsaid": 429,
      "od": 430,
      "ack": 431,
      "ĠThey": 432,
      "ther": 433,
      "res": 434,
      "ide": 435,
      "Ġthis": 436,
      "oc": 437,
      "ment": 438,
      "Ġme": 439,
      "Ġle": 440,
      "Ġsu": 441,
      "ry": 442,
      "ily": 443,
      "ort": 444,
      "Ġwere": 445,
      "Ġbut": 446,
      "ĠâĢ": 447,
      "Ġgo": 448,
      "hen": 449,
      "Ġab": 450,
      "ak": 451,
      "Ġthere": 452,
      "out": 453,
      "ood": 454,
      "Ġ19": 455,
      "ally": 456,
      "ĠIt": 457,
      "Ġall": 458,
      "ake": 459,
      "iv": 460,
      "Ġwor": 461,
      "ne": 462,
      "Ġtheir": 463,
      "our": 464,
      "Ġj": 465,
      "ime": 466,
      "ge": 467,
      "ong": 468,
      "ast": 469,
      "itt": 470,
      "Ġout": 471,
      "ame": 472,
      "ich": 473,
      "ind": 474,
      "gh": 475,
      "ci": 476,
      "now": 477,
      "Ġday": 478,
      "Ġplay": 479,
      "Ġone": 480,
      "ber": 481,
      "one": 482,
      "ra": 483,
      "ine": 484,
      "ost": 485,
      "ia": 486,
      "Ġtime": 487,
      "Ġyour": 488,
      "Ġthem": 489,
      "..": 490,
      "te": 491,
      "hat": 492,
      "Ġcl": 493,
      "âĢĻ": 494,
      "og": 495,
      "Ġman": 496,
      "pt": 497,
      "ked": 498,
      "ous": 499,
      "pl": 500,
      "ĠU": 501,
      "ear": 502,
      "uc": 503,
      "ated": 504,
      "ian": 505,
      "Ġwant": 506,
      "act": 507,
      "ish": 508,
      "ice": 509,
      "Ġknow": 510,
      "Ġvery": 511,
      "ions": 512,
      "Ġtr": 513,
      "ved": 514,
      "Ġother": 515,
      "ound": 516,
      "Ġen": 517,
      "ater": 518,
      "oun": 519,
      "ary": 520,
      "Ġhim": 521,
      "my": 522,
      "Ġim": 523,
      "age": 524,
      "ical": 525,
      "Ġwhich": 526,
      "ĠIn": 527,
      "Ġmore": 528,
      "Ġsome": 529,
      "ĠK": 530,
      "are": 531,
      ".\"": 532,
      "Ġwill": 533,
      "ll": 534,
      "so": 535,
      "iz": 536,
      "ace": 537,
      "per": 538,
      "Ġun": 539,
      "here": 540,
      "Ġwho": 541,
      "Ġsm": 542,
      "ach": 543,
      "Ġlike": 544,
      "Ġint": 545,
      "Ġwhat": 546,
      "ign": 547,
      "Ġhas": 548,
      "Ġabout": 549,
      "ĠĊ": 550,
      "ittle": 551,
      "Ġlook": 552,
      "Ġro": 553,
      "aus": 554,
      "ue": 555,
      "ond": 556,
      "ug": 557,
      "ep": 558,
      "Ġpe": 559,
      "ild": 560,
      "Ġsp": 561,
      "Ġte": 562,
      "Ġhapp": 563,
      "ks": 564,
      "ree": 565,
      "Ġlittle": 566,
      "ass": 567,
      "Ġno": 568,
      "mer": 569,
      "hed": 570,
      "Ġad": 571,
      "ays": 572,
      "ans": 573,
      "av": 574,
      "Ġdid": 575,
      "ah": 576,
      "Ġag": 577,
      "Ġmom": 578,
      "ip": 579,
      "Ġwould": 580,
      "Ġdis": 581,
      "Ġwhen": 582,
      "ite": 583,
      "ult": 584,
      "ĠLily": 585,
      "ang": 586,
      "ings": 587,
      "Ġcould": 588,
      "cc": 589,
      "Ġbec": 590,
      "Ġcomp": 591,
      "ĠY": 592,
      "cl": 593,
      "Ġfe": 594,
      "ove": 595,
      "oy": 596,
      "reat": 597,
      "Ġalso": 598,
      "ople": 599,
      "Ġ20": 600,
      "Ġcont": 601,
      "Ġtoo": 602,
      "round": 603,
      "ction": 604,
      "ĠTh": 605,
      "able": 606,
      "ade": 607,
      "Ġar": 608,
      "ces": 609,
      "ase": 610,
      "Ġget": 611,
      "Ġspe": 612,
      "ount": 613,
      "orm": 614,
      "ub": 615,
      "ire": 616,
      "Ġtw": 617,
      "Ġres": 618,
      "Ġbig": 619,
      "ib": 620,
      "vel": 621,
      "feren": 622,
      "ĠSt": 623,
      "ress": 624,
      "ance": 625,
      "Ġhel": 626,
      "low": 627,
      "ial": 628,
      "ick": 629,
      "Ġthan": 630,
      "Ġmy": 631,
      "ence": 632,
      "ations": 633,
      "ink": 634,
      "ause": 635,
      "Ġsee": 636,
      "ile": 637,
      "ory": 638,
      "ents": 639,
      "Ġpr": 640,
      "own": 641,
      "ĠCh": 642,
      "Ġsc": 643,
      "ark": 644,
      "Ġback": 645,
      "Ġev": 646,
      "Ġpart": 647,
      "ord": 648,
      "Ġhelp": 649,
      "Ġinto": 650,
      "Ġover": 651,
      "Ġqu": 652,
      "we": 653,
      "Ġpeople": 654,
      "eth": 655,
      "ors": 656,
      "row": 657,
      "Ġper": 658,
      "ose": 659,
      "Ġbl": 660,
      "ful": 661,
      "nder": 662,
      "Ġbeen": 663,
      "iend": 664,
      "Ġfriend": 665,
      "Ġany": 666,
      "oh": 667,
      "Ġthen": 668,
      "ens": 669,
      "Ġimp": 670,
      "Ġif": 671,
      "ĠV": 672,
      "fter": 673,
      "Ġpre": 674,
      "irst": 675,
      "Ġsaw": 676,
      "19": 677,
      "ĠOn": 678,
      "ited": 679,
      "ff": 680,
      "Ġcol": 681,
      "Ġnew": 682,
      "Ġits": 683,
      "Ġhow": 684,
      "IN": 685,
      "Ġapp": 686,
      "Ġhappy": 687,
      ").": 688,
      "Ġ200": 689,
      "ov": 690,
      "Ġmake": 691,
      "!\"": 692,
      "Ġbet": 693,
      "Ġyear": 694,
      "ates": 695,
      "irl": 696,
      "ob": 697,
      "ts": 698,
      "Ġtwo": 699,
      "hy": 700,
      "Ġ3": 701,
      "Ġcar": 702,
      "ition": 703,
      "Ġoff": 704,
      "orn": 705,
      "Ġjust": 706,
      ",\"": 707,
      "als": 708,
      "Ġact": 709,
      "Ġdon": 710,
      "iver": 711,
      "Ġmade": 712,
      "Ġgr": 713,
      "Ġfirst": 714,
      "...": 715,
      "erm": 716,
      "way": 717,
      "ru": 718,
      "na": 719,
      "Ġgirl": 720,
      "ric": 721,
      "ons": 722,
      "get": 723,
      "rit": 724,
      "les": 725,
      "Ġgood": 726,
      "ise": 727,
      "ĠUn": 728,
      "side": 729,
      "âĢĿ": 730,
      "Ġmay": 731,
      "Ġstud": 732,
      "Ġfound": 733,
      "Ġdif": 734,
      "Ġbr": 735,
      "arn": 736,
      "ely": 737,
      "Ġdown": 738,
      "old": 739,
      "Ġunder": 740,
      "Ġsy": 741,
      "Ġagain": 742,
      "Ġcomm": 743,
      "ied": 744,
      "ath": 745,
      "ough": 746,
      "Ġam": 747,
      "urn": 748,
      "Ġfun": 749,
      "Ġneed": 750,
      "Ġmany": 751,
      "Ġgot": 752,
      "iss": 753,
      "Ġsom": 754,
      "igh": 755,
      "Ġupon": 756,
      "meric": 757,
      "Ġbir": 758,
      "oin": 759,
      "ail": 760,
      "ĠAn": 761,
      "Ġwent": 762,
      "ĠThis": 763,
      "Ġwork": 764,
      "ave": 765,
      "ool": 766,
      "Ġput": 767,
      "Ġaround": 768,
      "fect": 769,
      "ious": 770,
      "other": 771,
      "ĠOnce": 772,
      "oth": 773,
      "Ġstart": 774,
      "eah": 775,
      "Ġwanted": 776,
      "uch": 777,
      "Ġ-": 778,
      "ght": 779,
      "ft": 780,
      "Ġcall": 781,
      "Ġfl": 782,
      "Ġthese": 783,
      "olog": 784,
      "?\"": 785,
      "Ġused": 786,
      "wn": 787,
      "Ġonly": 788,
      "ĠâĢĶ": 789,
      "Ġmost": 790,
      "amp": 791,
      "Ġrec": 792,
      "ĠTim": 793,
      "xx": 794,
      "tern": 795,
      "Ġchild": 796,
      "rough": 797,
      "hes": 798,
      "Ġuse": 799,
      "Ġwater": 800,
      "),": 801,
      "fore": 802,
      "Ġdec": 803,
      "form": 804,
      "Ġ201": 805,
      "Ġevery": 806,
      "ĠâĢľ": 807,
      "'re": 808,
      "Ġright": 809,
      "lect": 810,
      "Ġind": 811,
      "Ġour": 812,
      "'m": 813,
      "Ġnow": 814,
      "Ġwhere": 815,
      "Ġke": 816,
      "land": 817,
      "cial": 818,
      "Ġafter": 819,
      "AT": 820,
      "clud": 821,
      "ouse": 822,
      "Ġsuch": 823,
      "elf": 824,
      "ect": 825,
      "Ġlong": 826,
      "Ġthink": 827,
      "amed": 828,
      "Ġla": 829,
      "ared": 830,
      "Ġbecause": 831,
      "ict": 832,
      "Ġthrough": 833,
      "ew": 834,
      "ational": 835,
      "ty": 836,
      "Ġrem": 837,
      "Ġdes": 838,
      "You": 839,
      "be": 840,
      "du": 841,
      "ĠBen": 842,
      "Ġhere": 843,
      "ĠâĢĵ": 844,
      "ng": 845,
      "Ġsur": 846,
      "Ġshould": 847,
      "ĠOne": 848,
      "It": 849,
      "ething": 850,
      "Ġdifferen": 851,
      "Ġmuch": 852,
      "ĠBut": 853,
      "right": 854,
      "ble": 855,
      "ific": 856,
      "oved": 857,
      "Ġaway": 858,
      "INV": 859,
      "Ġrel": 860,
      "Ġway": 861,
      "ities": 862,
      "Ġfind": 863,
      "In": 864,
      "Ġtake": 865,
      "ĠAmeric": 866,
      "ving": 867,
      "Ġfriends": 868,
      "Ġgen": 869,
      "ife": 870,
      "Ġsomething": 871,
      "Ġser": 872,
      "Ġboy": 873,
      "ys": 874,
      "ĠYou": 875,
      "Ġwell": 876,
      "Ġacc": 877,
      "Th": 878,
      "ting": 879,
      "Ġstr": 880,
      "Ġhome": 881,
      "alk": 882,
      "|-": 883,
      "Ġ4": 884,
      "Ġlearn": 885,
      "Ġinclud": 886,
      "ics": 887,
      "ĠTom": 888,
      "ought": 889,
      "oss": 890,
      "gan": 891,
      "20": 892,
      "Ġhand": 893,
      "Ġshow": 894,
      "cess": 895,
      "Ġbo": 896,
      "bs": 897,
      "ating": 898,
      "ular": 899,
      "elt": 900,
      "ures": 901,
      "ange": 902,
      "Ġbu": 903,
      "ph": 904,
      "xt": 905,
      "ried": 906,
      "cre": 907,
      "ased": 908,
      "Ġ18": 909,
      "uring": 910,
      "ax": 911,
      "ank": 912,
      "Ġyears": 913,
      "arch": 914,
      "the": 915,
      "stem": 916,
      "ward": 917,
      "Ġsays": 918,
      "velop": 919,
      "ject": 920,
      "Ġco": 921,
      "Ġnamed": 922,
      "Ġreg": 923,
      "Ġeven": 924,
      "ual": 925,
      "Ġeach": 926,
      "Ġsay": 927,
      "Ġcare": 928,
      "ĠAs": 929,
      "uck": 930,
      "arm": 931,
      "ative": 932,
      "Ġpol": 933,
      "Ġ5": 934,
      "aking": 935,
      "Ġend": 936,
      "Ġasked": 937,
      "what": 938,
      "He": 939,
      "Ġform": 940,
      "ĠSe": 941,
      "Ġac": 942,
      "Ġthings": 943,
      "Ġcalled": 944,
      "Ġold": 945,
      "ĠFr": 946,
      "ds": 947,
      "air": 948,
      "Ġsmil": 949,
      "you": 950,
      "Ġdoes": 951,
      "Ġsk": 952,
      "ather": 953,
      "vent": 954,
      "Ġrep": 955,
      "ually": 956,
      "no": 957,
      "tain": 958,
      "gether": 959,
      "Ġtogether": 960,
      "led": 961,
      "ments": 962,
      "ix": 963,
      "'ll": 964,
      "ars": 965,
      "ween": 966,
      "ffect": 967,
      "Ġdifferent": 968,
      "Ġcount": 969,
      "Ġsmall": 970,
      "Ġgoing": 971,
      "col": 972,
      "Ġlooked": 973,
      "Ġbefore": 974,
      "up": 975,
      "AR": 976,
      "ck": 977,
      "Ġread": 978,
      "Ġnum": 979,
      "ident": 980,
      "Ġcame": 981,
      "Ġ199": 982,
      "alth": 983,
      "Ġdr": 984,
      "Ġfam": 985,
      "Ġem": 986,
      "ĠWe": 987,
      "atch": 988,
      "ubl": 989,
      "ont": 990,
      "Ġcons": 991,
      "anc": 992,
      "Ġche": 993,
      "Ġhigh": 994,
      "Ġcome": 995,
      "What": 996,
      "Ġbetween": 997,
      "Ġop": 998,
      "Ġfelt": 999,
      "Ġbel": 1000,
      "ĠAr": 1001,
      "ower": 1002,
      "ided": 1003,
      "pr": 1004,
      "Ġstarted": 1005,
      "ible": 1006,
      "kay": 1007,
      "Ġ|": 1008,
      "Ġatt": 1009,
      "its": 1010,
      "pped": 1011,
      "Re": 1012,
      "Ġpres": 1013,
      "gr": 1014,
      "ways": 1015,
      "ĠAl": 1016,
      "ock": 1017,
      "Ġdevelop": 1018,
      "ever": 1019,
      "akes": 1020,
      "ves": 1021,
      "Ġbeing": 1022,
      "chool": 1023,
      "Ġfeel": 1024,
      "ened": 1025,
      "ĠRe": 1026,
      "Ġimport": 1027,
      "ody": 1028,
      "Ġsupp": 1029,
      "Ġthought": 1030,
      "ted": 1031,
      "ember": 1032,
      "FAT": 1033,
      "ollow": 1034,
      "ros": 1035,
      "Ġlar": 1036,
      "ists": 1037,
      "Ġsystem": 1038,
      "Ġloved": 1039,
      "ps": 1040,
      "iet": 1041,
      "Ġlet": 1042,
      "Ġass": 1043,
      "erson": 1044,
      "imes": 1045,
      "ny": 1046,
      "Ġprov": 1047,
      "Ġexpl": 1048,
      "til": 1049,
      "ivers": 1050,
      "Ġsmiled": 1051,
      "Ġear": 1052,
      "Ġthree": 1053,
      "Ġgl": 1054,
      "ism": 1055,
      "Ġown": 1056,
      "ins": 1057,
      "ished": 1058,
      "Ġboth": 1059,
      "Ġworld": 1060,
      "ines": 1061,
      "Ġlot": 1062,
      "io": 1063,
      "ĠAnd": 1064,
      "ull": 1065,
      "].": 1066,
      "Ġcent": 1067,
      "Ġset": 1068,
      "ale": 1069,
      "ants": 1070,
      "ution": 1071,
      "Ġdidn": 1072,
      "rib": 1073,
      "ven": 1074,
      "Ġmon": 1075,
      "ĠDe": 1076,
      "yes": 1077,
      "Ġbook": 1078,
      "Ġstill": 1079,
      "Ġadd": 1080,
      "ince": 1081,
      "yeah": 1082,
      "Ġsl": 1083,
      "ning": 1084,
      "Ġkm": 1085,
      "duc": 1086,
      "But": 1087,
      "Ġexc": 1088,
      "Ġ[": 1089,
      "Ġsw": 1090,
      "Ġran": 1091,
      "enc": 1092,
      "Ġdist": 1093,
      "ten": 1094,
      "any": 1095,
      "Ġrun": 1096,
      "read": 1097,
      "Ġcre": 1098,
      "Ġwhile": 1099,
      "Ġ6": 1100,
      "Ġfollow": 1101,
      "Ġalways": 1102,
      "day": 1103,
      "ĠAmerican": 1104,
      "Ġchildren": 1105,
      "outh": 1106,
      "Ġ'": 1107,
      "Ġalign": 1108,
      "gy": 1109,
      "Ġinst": 1110,
      "Ġanim": 1111,
      "Ġspec": 1112,
      "Ġbro": 1113,
      "ages": 1114,
      "Ġhouse": 1115,
      "color": 1116,
      "Ġcur": 1117,
      "Ġsame": 1118,
      "Ġnever": 1119,
      "pect": 1120,
      "Ġtook": 1121,
      "ash": 1122,
      "Ġcle": 1123,
      "Ġinv": 1124,
      "We": 1125,
      "Ġdog": 1126,
      "Ġthose": 1127,
      "Ġimportant": 1128,
      "Ã¢": 1129,
      "ized": 1130,
      "Ġfood": 1131,
      "ters": 1132,
      "ĠTimmy": 1133,
      "Ġsub": 1134,
      "Ġmod": 1135,
      "Ġsec": 1136,
      "Ġmin": 1137,
      "--": 1138,
      "gcolor": 1139,
      "rap": 1140,
      "aw": 1141,
      "self": 1142,
      "=#": 1143,
      "Ġgreat": 1144,
      "Ġty": 1145,
      "Ġtrans": 1146,
      "ĠSp": 1147,
      "au": 1148,
      "They": 1149,
      "Ġbgcolor": 1150,
      "ature": 1151,
      "ane": 1152,
      "ĠNew": 1153,
      "Ġgu": 1154,
      "ork": 1155,
      "Ġmus": 1156,
      "Ġfin": 1157,
      "az": 1158,
      "Ġcr": 1159,
      "Ġmov": 1160,
      "Ġlife": 1161,
      "Ġexp": 1162,
      "Ġph": 1163,
      "Ġsign": 1164,
      "ural": 1165,
      "ility": 1166,
      "oot": 1167,
      "iel": 1168,
      "udd": 1169,
      "âĤ": 1170,
      "Ġuntil": 1171,
      "Ġbetter": 1172,
      "âĤ¬": 1173,
      "that": 1174,
      "Ġinter": 1175,
      "Ġpop": 1176,
      "ier": 1177,
      "Ġhum": 1178,
      "man": 1179,
      "Ġknown": 1180,
      "Ġ7": 1181,
      "Ġpark": 1182,
      "cept": 1183,
      "omm": 1184,
      "Ġturn": 1185,
      "Ġmean": 1186,
      "Ġsim": 1187,
      "Ġbest": 1188,
      "ĠInd": 1189,
      "Ġhead": 1190,
      "ferences": 1191,
      "der": 1192,
      "Ġgener": 1193,
      "Ġpo": 1194,
      "ple": 1195,
      "ology": 1196,
      "Ġplaying": 1197,
      "vern": 1198,
      "ged": 1199,
      "Ġob": 1200,
      "Ġbird": 1201,
      "One": 1202,
      "Ġsad": 1203,
      "'ve": 1204,
      "ĠUnited": 1205,
      "Ġ8": 1206,
      "ĠLe": 1207,
      "Ġmed": 1208,
      "Ġduring": 1209,
      "Ġplace": 1210,
      "Ġdisc": 1211,
      "ton": 1212,
      "Ġtry": 1213,
      "ness": 1214,
      "Ġprodu": 1215,
      "ral": 1216,
      "ision": 1217,
      "Ġanother": 1218,
      "Ġmust": 1219,
      "rop": 1220,
      "Ġdet": 1221,
      "Ġschool": 1222,
      "Ġent": 1223,
      "und": 1224,
      "Ġkind": 1225,
      "Ġed": 1226,
      "xxx": 1227,
      "Ġball": 1228,
      "Ġgrou": 1229,
      "Ġwr": 1230,
      "by": 1231,
      "Ġtell": 1232,
      "ger": 1233,
      "hip": 1234,
      "Ġname": 1235,
      "Ġspecial": 1236,
      "rest": 1237,
      "Ġgrow": 1238,
      "Ġgre": 1239,
      "Ġnumber": 1240,
      "thing": 1241,
      "ury": 1242,
      "Ġperson": 1243,
      "ohn": 1244,
      "ired": 1245,
      "Ġrese": 1246,
      "lish": 1247,
      "Ġkne": 1248,
      "Ġloc": 1249,
      "References": 1250,
      "Ġide": 1251,
      "ner": 1252,
      "stand": 1253,
      "Ġpoin": 1254,
      "Ġvar": 1255,
      "Ġreal": 1256,
      "Ġlead": 1257,
      "Ġcommun": 1258,
      "Ġhealth": 1259,
      "Ġsing": 1260,
      "Ġless": 1261,
      "fl": 1262,
      "Ġart": 1263,
      "âĢĵ": 1264,
      "ues": 1265,
      "ms": 1266,
      "No": 1267,
      "ute": 1268,
      "cient": 1269,
      "ames": 1270,
      "And": 1271,
      "ump": 1272,
      "ĠEng": 1273,
      "Ġpat": 1274,
      "Ġhard": 1275,
      "orth": 1276,
      "Ġwa": 1277,
      "Ġcap": 1278,
      "Ġ9": 1279,
      "Ġlist": 1280,
      "ross": 1281,
      "000": 1282,
      "let": 1283,
      "Ġ10": 1284,
      "rent": 1285,
      "cent": 1286,
      "ains": 1287,
      "Ġoutside": 1288,
      "This": 1289,
      "uss": 1290,
      "chn": 1291,
      "Ġtree": 1292,
      "Ġkeep": 1293,
      "irect": 1294,
      "ries": 1295,
      "ern": 1296,
      "iew": 1297,
      "ĠPro": 1298,
      "Ġmight": 1299,
      "Ġnear": 1300,
      "ublic": 1301,
      "Ġfact": 1302,
      "ize": 1303,
      "Ġsun": 1304,
      "ases": 1305,
      "iversity": 1306,
      "ites": 1307,
      "ĠStates": 1308,
      "Ġcond": 1309,
      "ruct": 1310,
      "Ġeffect": 1311,
      "Ġfamily": 1312,
      "Ġland": 1313,
      "Ġeat": 1314,
      "ata": 1315,
      "Ġincre": 1316,
      "Ġgiv": 1317,
      "Ġflow": 1318,
      "vers": 1319,
      "ĠThere": 1320,
      "Ġref": 1321,
      "ĠHow": 1322,
      "Ġdecided": 1323,
      "Ġinte": 1324,
      "Ġexper": 1325,
      "Ġoften": 1326,
      "Ġlight": 1327,
      "Ġmet": 1328,
      "Ġresult": 1329,
      "uh": 1330,
      "ets": 1331,
      "ara": 1332,
      "Ġchar": 1333,
      "Ġroom": 1334,
      "ement": 1335,
      "Ġgive": 1336,
      "formation": 1337,
      "Ġproble": 1338,
      "aut": 1339,
      "ample": 1340,
      "ĠSoc": 1341,
      "Ġcour": 1342,
      "Ġfore": 1343,
      "els": 1344,
      "mber": 1345,
      "Ġlove": 1346,
      "br": 1347,
      "ths": 1348,
      "Ġwom": 1349,
      "Ġpartic": 1350,
      "Ġbeh": 1351,
      "Ġtold": 1352,
      "ised": 1353,
      "ids": 1354,
      "Ġhug": 1355,
      "orry": 1356,
      "erv": 1357,
      "That": 1358,
      "oll": 1359,
      "aj": 1360,
      "iron": 1361,
      "ike": 1362,
      "ĠMom": 1363,
      "to": 1364,
      "ene": 1365,
      "Lily": 1366,
      "ĠFor": 1367,
      "ĠWhen": 1368,
      "ex": 1369,
      "Ġmain": 1370,
      "ron": 1371,
      "ats": 1372,
      "ĠSam": 1373,
      "Ġliked": 1374,
      "Ġelect": 1375,
      "ient": 1376,
      "Ġplayed": 1377,
      "ices": 1378,
      "Ġair": 1379,
      "fefe": 1380,
      "ĠSh": 1381,
      "Ġprocess": 1382,
      "where": 1383,
      "Ġtre": 1384,
      "Ġel": 1385,
      "gg": 1386,
      "Ġlast": 1387,
      "Ġmar": 1388,
      "ĠBe": 1389,
      "ched": 1390,
      "ered": 1391,
      "ically": 1392,
      "Ġext": 1393,
      "Ġbecame": 1394,
      "Ġreally": 1395,
      "Ġdad": 1396,
      "Ġcontin": 1397,
      "Ġnext": 1398,
      "Ġbuild": 1399,
      "ina": 1400,
      "pend": 1401,
      "ians": 1402,
      "Ġaut": 1403,
      "Ġexcited": 1404,
      "istory": 1405,
      "Ġret": 1406,
      "ĠIs": 1407,
      "Ġ198": 1408,
      "osed": 1409,
      "ides": 1410,
      "Ġocc": 1411,
      "ital": 1412,
      "Ġprote": 1413,
      "ole": 1414,
      "Ġfew": 1415,
      "Ġstudents": 1416,
      "raw": 1417,
      "10": 1418,
      "Ġest": 1419,
      "con": 1420,
      "tle": 1421,
      "oon": 1422,
      "Ġknew": 1423,
      "ung": 1424,
      "Ġclass": 1425,
      "Ġsol": 1426,
      "Ġpower": 1427,
      "Ġbre": 1428,
      "Ġmat": 1429,
      "Ġbus": 1430,
      "dy": 1431,
      "Ġcell": 1432,
      "Ġbox": 1433,
      "Ġdi": 1434,
      "Yes": 1435,
      "Ġgave": 1436,
      "Ġer": 1437,
      "\".": 1438,
      "Ġplan": 1439,
      "Ġunderstand": 1440,
      "Ġinside": 1441,
      "Ġlevel": 1442,
      "Ġrest": 1443,
      "Ġbody": 1444,
      "lease": 1445,
      "ling": 1446,
      "Ġmove": 1447,
      "Ġval": 1448,
      "gram": 1449,
      "Ġtreat": 1450,
      "Ġscared": 1451,
      "uro": 1452,
      "ulation": 1453,
      "Ġrequ": 1454,
      "Ġtoys": 1455,
      "angu": 1456,
      "Ġpass": 1457,
      "ĠIf": 1458,
      "ason": 1459,
      "Ġpain": 1460,
      "Ġposs": 1461,
      "ĠZ": 1462,
      "ium": 1463,
      "Ġorgan": 1464,
      "Ġusing": 1465,
      "Ġfour": 1466,
      "ĠJohn": 1467,
      "200": 1468,
      "Ġ17": 1469,
      "Oh": 1470,
      "Ġred": 1471,
      "Ġbelie": 1472,
      "bers": 1473,
      "Ġstand": 1474,
      "Ġmil": 1475,
      "Ġheard": 1476,
      "ma": 1477,
      "Ġsecond": 1478,
      "ik": 1479,
      "Ġstudy": 1480,
      "Ġdirect": 1481,
      "Ġdone": 1482,
      "oney": 1483,
      "Ġanimals": 1484,
      "sh": 1485,
      "Ġcommon": 1486,
      "Ġele": 1487,
      "hys": 1488,
      "Ġcat": 1489,
      "Ġtop": 1490,
      "18": 1491,
      "ield": 1492,
      "Ġwind": 1493,
      "udden": 1494,
      "Ġdep": 1495,
      "ĠCan": 1496,
      "ball": 1497,
      "Ġinformation": 1498,
      "Ġav": 1499,
      "acter": 1500,
      "Ġlarge": 1501,
      "Ġtechn": 1502,
      "une": 1503,
      "Ġwalk": 1504,
      "Ġtest": 1505,
      "Ġdeath": 1506,
      "Ġleft": 1507,
      "Ġgovern": 1508,
      "me": 1509,
      "Ġvis": 1510,
      "ĠCl": 1511,
      "Ġdise": 1512,
      "So": 1513,
      "Ġsorry": 1514,
      "Ġresp": 1515,
      "Ġ15": 1516,
      "Ġdel": 1517,
      "inal": 1518,
      "Ġeas": 1519,
      "Ġ197": 1520,
      "ĠHis": 1521,
      "Ġwithout": 1522,
      "Ġnice": 1523,
      "rol": 1524,
      "ĠAt": 1525,
      "com": 1526,
      "ined": 1527,
      "Ġactiv": 1528,
      "Ġsound": 1529,
      "ĠSo": 1530,
      "aper": 1531,
      "Ġopen": 1532,
      "Ġcareful": 1533,
      "Ġdoing": 1534,
      "ho": 1535,
      "Ġmommy": 1536,
      "Ġstate": 1537,
      "ĠHer": 1538,
      "Ġnight": 1539,
      "Ġwhy": 1540,
      "Ġexample": 1541,
      ".,": 1542,
      "Ġtalk": 1543,
      "ober": 1544,
      "Ġclim": 1545,
      "do": 1546,
      "Ġthing": 1547,
      "ional": 1548,
      "cle": 1549,
      "Ġpa": 1550,
      "When": 1551,
      "Ġmem": 1552,
      "ĠMay": 1553,
      "Ġtra": 1554,
      "Ġsure": 1555,
      "hers": 1556,
      "Ġfar": 1557,
      "Ġdef": 1558,
      "ope": 1559,
      "Ġlater": 1560,
      "Ġtem": 1561,
      "viron": 1562,
      "bit": 1563,
      "Ġallow": 1564,
      "Ġbas": 1565,
      "ograp": 1566,
      "aby": 1567,
      "Ġchang": 1568,
      "leep": 1569,
      "Ġdesign": 1570,
      "ality": 1571,
      "Ġhur": 1572,
      "onna": 1573,
      "aces": 1574,
      "Ġtried": 1575,
      "Ġarea": 1576,
      "rom": 1577,
      "orts": 1578,
      "Ġwon": 1579,
      "Ġpur": 1580,
      "cer": 1581,
      "Ġcaus": 1582,
      "Ġhuman": 1583,
      "ape": 1584,
      "ĠUniversity": 1585,
      "Ġagainst": 1586,
      "Ġground": 1587,
      "Ġmaking": 1588,
      "not": 1589,
      "iod": 1590,
      "ox": 1591,
      "Ġequ": 1592,
      "Ġpolit": 1593,
      "ĠMax": 1594,
      "Ġtoy": 1595,
      "Ġpresent": 1596,
      "Ġdata": 1597,
      "ĠCon": 1598,
      "Ġxxx": 1599,
      "Ġever": 1600,
      "ush": 1601,
      "Ġstay": 1602,
      "Ġquest": 1603,
      "Ġconst": 1604,
      "Ġprom": 1605,
      "Ġmen": 1606,
      "Ġbit": 1607,
      "que": 1608,
      "ced": 1609,
      "Ġwebs": 1610,
      "Ġbad": 1611,
      "ww": 1612,
      "Ġincluding": 1613,
      "uddenly": 1614,
      "tend": 1615,
      "end": 1616,
      "ĠGerm": 1617,
      "less": 1618,
      "Ġcor": 1619,
      "Ġyoung": 1620,
      "ok": 1621,
      "rist": 1622,
      "ract": 1623,
      "Ġ16": 1624,
      "ĠMar": 1625,
      "ergy": 1626,
      "Ġsoon": 1627,
      "Ġseen": 1628,
      "augh": 1629,
      "eng": 1630,
      "ĠThese": 1631,
      "ately": 1632,
      "Ġable": 1633,
      "ained": 1634,
      "Ġve": 1635,
      "rown": 1636,
      "Ġcity": 1637,
      "ĠGr": 1638,
      "Ġmag": 1639,
      "ĠJack": 1640,
      "Ġstrong": 1641,
      "Ġprogram": 1642,
      "ider": 1643,
      "gin": 1644,
      "Ġgroup": 1645,
      "Ġseem": 1646,
      "sp": 1647,
      "app": 1648,
      "oice": 1649,
      "Ġpar": 1650,
      "oe": 1651,
      "Ġprin": 1652,
      "Ġterm": 1653,
      "Ġcouldn": 1654,
      "ency": 1655,
      "Ġhold": 1656,
      "Ġlangu": 1657,
      "itions": 1658,
      "ummy": 1659,
      "etimes": 1660,
      "There": 1661,
      "Ġchange": 1662,
      "Ġgonna": 1663,
      "Ġteam": 1664,
      "orld": 1665,
      "ator": 1666,
      "Ġhaving": 1667,
      "ĠQ": 1668,
      "Ġmill": 1669,
      "Ġside": 1670,
      "Ġspecies": 1671,
      "Ġpot": 1672,
      "Ġidea": 1673,
      "Ġenough": 1674,
      "ĠWhat": 1675,
      "eral": 1676,
      "Ġcomple": 1677,
      "veral": 1678,
      "Ġbeaut": 1679,
      "Ġearly": 1680,
      "ĠBrit": 1681,
      "Ġ12": 1682,
      "Ġpict": 1683,
      "Ġes": 1684,
      "rog": 1685,
      "INE": 1686,
      "oud": 1687,
      "vironment": 1688,
      "Ġrepl": 1689,
      "ster": 1690,
      "ĠMr": 1691,
      "Ġ.": 1692,
      "ives": 1693,
      "Ġleg": 1694,
      "aves": 1695,
      "Ġstory": 1696,
      "Ġris": 1697,
      "Ġmusic": 1698,
      "Ġsym": 1699,
      "She": 1700,
      "Ġeng": 1701,
      ".âĢĿ": 1702,
      "aring": 1703,
      "Ġ196": 1704,
      "Ã©": 1705,
      "Ġlik": 1706,
      "Ġfish": 1707,
      "ĠAd": 1708,
      "eb": 1709,
      "oms": 1710,
      "Ġalong": 1711,
      "aterial": 1712,
      "Ġfoot": 1713,
      "Ġsince": 1714,
      "ĠThen": 1715,
      "Ġwee": 1716,
      "Ġinterest": 1717,
      "Ġblood": 1718,
      "ĠAll": 1719,
      "Ġtyp": 1720,
      "ĠBl": 1721,
      "Ġbegan": 1722,
      "Yeah": 1723,
      "ense": 1724,
      "ister": 1725,
      "ffic": 1726,
      "As": 1727,
      "Ġadv": 1728,
      "Ġz": 1729,
      "arden": 1730,
      "Ġpie": 1731,
      "ajor": 1732,
      "hm": 1733,
      "urope": 1734,
      "ones": 1735,
      "Ġinc": 1736,
      "atic": 1737,
      "Ġdri": 1738,
      "An": 1739,
      "iness": 1740,
      "ination": 1741,
      "ivid": 1742,
      "Ġmeans": 1743,
      "Ġeyes": 1744,
      "aster": 1745,
      "Ġheart": 1746,
      "Ġpract": 1747,
      "ĠAnna": 1748,
      "orro": 1749,
      "Ġsupport": 1750,
      "Ġfire": 1751,
      "bed": 1752,
      "Ġothers": 1753,
      "wards": 1754,
      "asure": 1755,
      "cause": 1756,
      "ĠLINE": 1757,
      "Ġsong": 1758,
      "ley": 1759,
      "ĠEvery": 1760,
      "ream": 1761,
      "ĠSocorro": 1762,
      "ĠLINEAR": 1763,
      "Ġbed": 1764,
      "Ġlooking": 1765,
      "ories": 1766,
      "ctor": 1767,
      "Ġsit": 1768,
      "Ġresearch": 1769,
      "ertain": 1770,
      "Ġface": 1771,
      "ior": 1772,
      "illed": 1773,
      "Ġwrit": 1774,
      "Ġquick": 1775,
      "idd": 1776,
      "Ġlived": 1777,
      "cience": 1778,
      "iful": 1779,
      "ĠPl": 1780,
      "Ġlaw": 1781,
      "Ġang": 1782,
      "Ġmother": 1783,
      "oci": 1784,
      "Ġage": 1785,
      "Ġste": 1786,
      "Ġbecome": 1787,
      "Ġpos": 1788,
      "Ġbear": 1789,
      "Ġinclude": 1790,
      "ĠCol": 1791,
      "conom": 1792,
      "Ġenergy": 1793,
      "ering": 1794,
      "ama": 1795,
      "osp": 1796,
      "Ġwhe": 1797,
      "Ġtimes": 1798,
      "Ġseveral": 1799,
      "Ġcountry": 1800,
      "Ġwithin": 1801,
      "itive": 1802,
      "ards": 1803,
      "12": 1804,
      "Ġorig": 1805,
      "Ġhands": 1806,
      "Ġfall": 1807,
      "ording": 1808,
      "roud": 1809,
      "How": 1810,
      "Ġprof": 1811,
      "iny": 1812,
      "Ġdoor": 1813,
      "ellow": 1814,
      "ĠEurope": 1815,
      "Ġappro": 1816,
      "can": 1817,
      "ently": 1818,
      "St": 1819,
      "Ġmaterial": 1820,
      "ott": 1821,
      "Ġdem": 1822,
      "Ġwar": 1823,
      "Ġlearned": 1824,
      "Ġconf": 1825,
      "Ġfle": 1826,
      "Ġhy": 1827,
      "duced": 1828,
      "Ġdays": 1829,
      "If": 1830,
      "lev": 1831,
      "Ġtoday": 1832,
      "Ġproud": 1833,
      "Ġhig": 1834,
      "Ġclean": 1835,
      "okay": 1836,
      "ization": 1837,
      "Ġdisease": 1838,
      "Ġimm": 1839,
      "ills": 1840,
      "Ġcourse": 1841,
      "ĠEm": 1842,
      "Ġwords": 1843,
      "Ġwomen": 1844,
      "Ġclos": 1845,
      "Ġphys": 1846,
      "alf": 1847,
      "ably": 1848,
      "ĠWh": 1849,
      "ptember": 1850,
      "ĠHowever": 1851,
      "Ġgovernment": 1852,
      "Ġcir": 1853,
      "Mom": 1854,
      "Ġ&": 1855,
      "Ġgarden": 1856,
      "anu": 1857,
      "ĠWorld": 1858,
      "Ġgame": 1859,
      "aps": 1860,
      "ccess": 1861,
      "Ġorder": 1862,
      "ese": 1863,
      "ĠPr": 1864,
      "Well": 1865,
      "âĢĶ": 1866,
      "ught": 1867,
      "Ġlow": 1868,
      "Ġoper": 1869,
      "ĠEnglish": 1870,
      "opped": 1871,
      "ĠAust": 1872,
      "Ġbeautiful": 1873,
      "Ġsafe": 1874,
      "ified": 1875,
      "Ġfull": 1876,
      "Ġthough": 1877,
      "fic": 1878,
      "ources": 1879,
      "ued": 1880,
      "Ġpaper": 1881,
      "Ġ14": 1882,
      "Ġant": 1883,
      "put": 1884,
      "Ġ194": 1885,
      "Ġwhite": 1886,
      "most": 1887,
      "Ġfast": 1888,
      "Ġeduc": 1889,
      "Ġpublic": 1890,
      "199": 1891,
      "Ġoccur": 1892,
      "Ġpret": 1893,
      "ĠCar": 1894,
      "50": 1895,
      "Let": 1896,
      "Ġblack": 1897,
      "uff": 1898,
      "atural": 1899,
      "Ġsleep": 1900,
      "ission": 1901,
      "eter": 1902,
      "Ġwin": 1903,
      "17": 1904,
      "Ġelse": 1905,
      "ĠFrom": 1906,
      "Ġbaby": 1907,
      "ĠAf": 1908,
      "Ġmoney": 1909,
      "Ġtri": 1910,
      "Ġcult": 1911,
      "Ġperiod": 1912,
      "ither": 1913,
      "de": 1914,
      "apan": 1915,
      "thern": 1916,
      "Ġsil": 1917,
      "Other": 1918,
      "Ġexperi": 1919,
      "ĠOr": 1920,
      "ĠPh": 1921,
      "ĠTr": 1922,
      "ze": 1923,
      "Ġperform": 1924,
      "hing": 1925,
      "Ġmeth": 1926,
      "ert": 1927,
      "ĠWar": 1928,
      "ration": 1929,
      "Ġindivid": 1930,
      "'d": 1931,
      "there": 1932,
      "Ġpri": 1933,
      "Ġlooks": 1934,
      "hor": 1935,
      "af": 1936,
      "ĠThat": 1937,
      "Ġusually": 1938,
      "ann": 1939,
      "Ġmakes": 1940,
      "ison": 1941,
      "Ġcry": 1942,
      "ĠSeptember": 1943,
      "ental": 1944,
      "sy": 1945,
      "oor": 1946,
      "Ġmajor": 1947,
      "ird": 1948,
      "Ġopp": 1949,
      "ĠGe": 1950,
      "Ġcreat": 1951,
      "Ġlive": 1952,
      "Ġhistory": 1953,
      "port": 1954,
      "Ġplant": 1955,
      "Ġcontrol": 1956,
      "Ġserv": 1957,
      "resent": 1958,
      "aining": 1959,
      "Ġfur": 1960,
      "Ġrad": 1961,
      "Ġpoint": 1962,
      "ĠChrist": 1963,
      "Ġanything": 1964,
      "Ġident": 1965,
      "ption": 1966,
      "Ġline": 1967,
      "Ġrock": 1968,
      "ĠPe": 1969,
      "ached": 1970,
      "aken": 1971,
      "Ġcolor": 1972,
      "Ġins": 1973,
      "Ġborn": 1974,
      "alked": 1975,
      "Ġwatch": 1976,
      "Ġenvironment": 1977,
      "Ġcause": 1978,
      "ae": 1979,
      "Ġtown": 1980,
      "Ġshort": 1981,
      "Ġstop": 1982,
      "ĠTe": 1983,
      "Ġ13": 1984,
      "ĠNational": 1985,
      "Ġdied": 1986,
      "Ġpretty": 1987,
      "Ġwait": 1988,
      "Ġshare": 1989,
      "oes": 1990,
      "though": 1991,
      "Ġfly": 1992,
      "Ġproper": 1993,
      "Ġblue": 1994,
      "Ġobject": 1995,
      "ential": 1996,
      "aced": 1997,
      "Ġdevelopment": 1998,
      "Ġfree": 1999,
      "ety": 2000,
      "ĠCom": 2001,
      "ye": 2002,
      "ored": 2003,
      "Ġreturn": 2004,
      "Ġgreen": 2005,
      "ĠSc": 2006,
      "ours": 2007,
      "Ġgiven": 2008,
      "rents": 2009,
      "Ġestab": 2010,
      "Ġbased": 2011,
      "ological": 2012,
      "Ġrecord": 2013,
      "ĠComm": 2014,
      "iam": 2015,
      "ĠFl": 2016,
      "Ġstat": 2017,
      "16": 2018,
      "ances": 2019,
      "ugust": 2020,
      "Ġforest": 2021,
      "ipp": 2022,
      "Ġjoin": 2023,
      "ctober": 2024,
      "Ġnoise": 2025,
      "Ġokay": 2026,
      "Ġpic": 2027,
      "ĠEx": 2028,
      "Ġsky": 2029,
      "rel": 2030,
      "15": 2031,
      "Ġjump": 2032,
      "Ġfive": 2033,
      "Ġfre": 2034,
      "Ġscient": 2035,
      "Ġsurpr": 2036,
      "ĠKing": 2037,
      "arc": 2038,
      "Ġwond": 2039,
      "ication": 2040,
      "Ġacross": 2041,
      "Ġask": 2042,
      "Ġdesc": 2043,
      "of": 2044,
      "Ġvol": 2045,
      "Ġcertain": 2046,
      "Ġcoming": 2047,
      "Ġans": 2048,
      "ences": 2049,
      "sel": 2050,
      "Ġsuccess": 2051,
      "Ġcentury": 2052,
      "ilar": 2053,
      "Ġinfl": 2054,
      "ots": 2055,
      "Ġcut": 2056,
      "Ġpress": 2057,
      "Ġhimself": 2058,
      "wer": 2059,
      "14": 2060,
      "Ġpossible": 2061,
      "Ġappl": 2062,
      "ĠMarch": 2063,
      "anuary": 2064,
      "Ġkept": 2065,
      "work": 2066,
      "Ġfil": 2067,
      "ney": 2068,
      "Ġlots": 2069,
      "come": 2070,
      "cts": 2071,
      "well": 2072,
      "Ġswe": 2073,
      "but": 2074,
      "Ġlanguage": 2075,
      "Ġdraw": 2076,
      "Ġhugged": 2077,
      "13": 2078,
      "Ġrece": 2079,
      "ify": 2080,
      "uly": 2081,
      "ention": 2082,
      "Ġfollowing": 2083,
      "ady": 2084,
      "ogn": 2085,
      "ĠAfter": 2086,
      "Ġsn": 2087,
      "Ġcal": 2088,
      "ĠRes": 2089,
      "Ġsocial": 2090,
      "Ġbreak": 2091,
      "par": 2092,
      "Ġsqu": 2093,
      "Ġdoll": 2094,
      "ring": 2095,
      "ĠEar": 2096,
      "ived": 2097,
      "ret": 2098,
      "Ġcurrent": 2099,
      "cially": 2100,
      "anna": 2101,
      "ource": 2102,
      "Ġimpro": 2103,
      "Ġtype": 2104,
      "Ġparticular": 2105,
      "look": 2106,
      "Ġword": 2107,
      "Ġbat": 2108,
      "ĠBritish": 2109,
      "Ġsat": 2110,
      "ony": 2111,
      "Ch": 2112,
      "Ġproblem": 2113,
      "Ġpast": 2114,
      "Ġet": 2115,
      "olution": 2116,
      "ee": 2117,
      "ĠSouth": 2118,
      "ĠJapan": 2119,
      "Ġteac": 2120,
      "Ġcase": 2121,
      "ĠNorth": 2122,
      "over": 2123,
      "ĠOctober": 2124,
      "ER": 2125,
      "Ġlearning": 2126,
      "use": 2127,
      "Ġclose": 2128,
      "Ġwarm": 2129,
      "overed": 2130,
      "Ġsoft": 2131,
      "rench": 2132,
      "Ġmark": 2133,
      "ches": 2134,
      "rew": 2135,
      "enn": 2136,
      "amm": 2137,
      "ĠAugust": 2138,
      "Ġmanag": 2139,
      "Ġinvol": 2140,
      "Ġiss": 2141,
      "Ġdev": 2142,
      "ples": 2143,
      "iter": 2144,
      "Ġamong": 2145,
      "son": 2146,
      "Ġcook": 2147,
      "Ġpopulation": 2148,
      "Ġareas": 2149,
      "ĠCent": 2150,
      "ead": 2151,
      "joy": 2152,
      "Ġstruct": 2153,
      "Ġonce": 2154,
      "rought": 2155,
      "icle": 2156,
      "ales": 2157,
      "aught": 2158,
      "ĠAfric": 2159,
      "hem": 2160,
      "Ġmethod": 2161,
      "ternational": 2162,
      "Ġappear": 2163,
      "On": 2164,
      "ilt": 2165,
      "Ġeconom": 2166,
      "iety": 2167,
      "ai": 2168,
      "itional": 2169,
      "Ġreport": 2170,
      "Ġliving": 2171,
      "Ġtou": 2172,
      "Ġmovie": 2173,
      "22": 2174,
      "ĠJanuary": 2175,
      "ote": 2176,
      "ĠâĢĺ": 2177,
      "Ġcells": 2178,
      "ĠBr": 2179,
      "Ġwebsites": 2180,
      "view": 2181,
      "ĠYork": 2182,
      "ĠCal": 2183,
      "Ġgetting": 2184,
      "rave": 2185,
      ",âĢĿ": 2186,
      "Ġquickly": 2187,
      "more": 2188,
      "Ġoffic": 2189,
      "pril": 2190,
      "Ġsometimes": 2191,
      "ĠSome": 2192,
      "Ġ193": 2193,
      "Ġhurt": 2194,
      "Ġfav": 2195,
      "ode": 2196,
      "fer": 2197,
      "ĠDad": 2198,
      "Ġvoice": 2199,
      "Ġwood": 2200,
      "Ġsix": 2201,
      "istor": 2202,
      "born": 2203,
      "oke": 2204,
      "Ġcomput": 2205,
      "umb": 2206,
      "ĠCount": 2207,
      "idence": 2208,
      "ĠNe": 2209,
      "ability": 2210,
      "Ġobs": 2211,
      "ĠGod": 2212,
      "Ġhappened": 2213,
      "Ġlost": 2214,
      "Ġwat": 2215,
      "face": 2216,
      "Tom": 2217,
      "Ġlim": 2218,
      "wh": 2219,
      "Ġsent": 2220,
      "Americ": 2221,
      "Ġmind": 2222,
      "Ġpost": 2223,
      "Ġtemper": 2224,
      "isc": 2225,
      "key": 2226,
      "Ġce": 2227,
      "Ġopened": 2228,
      "ugh": 2229,
      "NA": 2230,
      "ready": 2231,
      "Ġfather": 2232,
      "rict": 2233,
      "aly": 2234,
      "Ġproject": 2235,
      "Ġtable": 2236,
      "Ġheld": 2237,
      "anger": 2238,
      "cember": 2239,
      "ficult": 2240,
      "Ġlisten": 2241,
      "Ġhalf": 2242,
      "Ġ2000": 2243,
      "Ġmillion": 2244,
      "Ġaffect": 2245,
      "Ġbi": 2246,
      "Ġexam": 2247,
      "ĠTo": 2248,
      "Ġtrad": 2249,
      "Ġspace": 2250,
      "ughed": 2251,
      "ĠMia": 2252,
      "Ġlaughed": 2253,
      "ovember": 2254,
      "fefefe": 2255,
      "itten": 2256,
      "Ġlab": 2257,
      "Ġavail": 2258,
      "Ġmess": 2259,
      "Ġhot": 2260,
      "Ġmot": 2261,
      "Ġbirths": 2262,
      "Ġenjoy": 2263,
      "yn": 2264,
      "stit": 2265,
      "Ġloud": 2266,
      "iding": 2267,
      "ises": 2268,
      "Ġrain": 2269,
      "Ġrisk": 2270,
      "21": 2271,
      "Ġsugg": 2272,
      "Ġsuggest": 2273,
      "Ġview": 2274,
      "Ġbehind": 2275,
      "Ġwhole": 2276,
      "Ġbrother": 2277,
      "Ġproblems": 2278,
      "Ġnod": 2279,
      "Ġslow": 2280,
      "orning": 2281,
      "Ġice": 2282,
      "Ġdoesn": 2283,
      "Ġcharacter": 2284,
      "uit": 2285,
      "Ġcomes": 2286,
      "acy": 2287,
      "Ġplants": 2288,
      "go": 2289,
      "Ġabove": 2290,
      "Ġexplore": 2291,
      "Ġnon": 2292,
      "PAR": 2293,
      "erc": 2294,
      "for": 2295,
      "iving": 2296,
      "Ġneeded": 2297,
      "aur": 2298,
      "Ġdeterm": 2299,
      "Ġseries": 2300,
      "Ġdifficult": 2301,
      "tt": 2302,
      "Ġhear": 2303,
      "American": 2304,
      "aim": 2305,
      "Ġbooks": 2306,
      "vious": 2307,
      "Ġdue": 2308,
      "etic": 2309,
      "Ġparents": 2310,
      "selves": 2311,
      "IS": 2312,
      "Ġdark": 2313,
      "Ġnatural": 2314,
      "âĢľ": 2315,
      "ery": 2316,
      "Ġcost": 2317,
      "artment": 2318,
      "Ġamount": 2319,
      "Ġalmost": 2320,
      "ĠDo": 2321,
      "Don": 2322,
      "room": 2323,
      "Ġmeet": 2324,
      "11": 2325,
      "Ġhigher": 2326,
      "utes": 2327,
      "ĠApril": 2328,
      "Ġprovide": 2329,
      "ĠBob": 2330,
      "Ġplease": 2331,
      "Ġready": 2332,
      "min": 2333,
      "Ġconne": 2334,
      "cul": 2335,
      "Ġfeeling": 2336,
      "ĠMin": 2337,
      "Ġfield": 2338,
      "Ġtaken": 2339,
      "Al": 2340,
      "line": 2341,
      "Ġter": 2342,
      "Ġfight": 2343,
      "Ġ30": 2344,
      "Ġgone": 2345,
      "Ġcomb": 2346,
      "Ġisn": 2347,
      "zy": 2348,
      "ĠDecember": 2349,
      "Ġnational": 2350,
      "Ġbene": 2351,
      "Ġbrain": 2352,
      "ĠAb": 2353,
      "Ġbegin": 2354,
      "Ġstore": 2355,
      "Ġsimilar": 2356,
      "pecially": 2357,
      "Ġjob": 2358,
      "Ġbar": 2359,
      "Ġheav": 2360,
      "ression": 2361,
      "Ġprotect": 2362,
      "Ġdam": 2363,
      "Ġhair": 2364,
      "ĠNovember": 2365,
      "Ġspecific": 2366,
      "rie": 2367,
      "por": 2368,
      "Ġworking": 2369,
      "ĠPar": 2370,
      "Ġlay": 2371,
      "ications": 2372,
      "Ġworks": 2373,
      "ebru": 2374,
      "ebruary": 2375,
      "ule": 2376,
      "gest": 2377,
      "Ġbelieve": 2378,
      "reen": 2379,
      "leased": 2380,
      "ĠUS": 2381,
      "Ġtrees": 2382,
      "Ġyes": 2383,
      "Ġkey": 2384,
      "Ġclear": 2385,
      "oad": 2386,
      "Ġvir": 2387,
      "iced": 2388,
      "ĠEn": 2389,
      "ourn": 2390,
      "Ġ195": 2391,
      "ĠĠ": 2392,
      "Ġyet": 2393,
      "Ġalready": 2394,
      "ĠSara": 2395,
      "Ġsingle": 2396,
      "ĠX": 2397,
      "Ġsum": 2398,
      "Ġthanked": 2399,
      "ĠRep": 2400,
      "Ġevent": 2401,
      "Ġmorning": 2402,
      "Åĵ": 2403,
      "Ġleave": 2404,
      "Ġleast": 2405,
      "\",": 2406,
      "Ġattack": 2407,
      "Ġprevent": 2408,
      "Ġprofess": 2409,
      "Ġinde": 2410,
      "Ġbirds": 2411,
      "ands": 2412,
      "Ġshowed": 2413,
      "Ġprob": 2414,
      "oman": 2415,
      "Ġmult": 2416,
      "levision": 2417,
      "Ġgoes": 2418,
      "Ġhor": 2419,
      "Ġmatter": 2420,
      "atory": 2421,
      "Ġwalked": 2422,
      "Ġregion": 2423,
      "ĠFrance": 2424,
      "ured": 2425,
      "dom": 2426,
      "Ġlaugh": 2427,
      "ument": 2428,
      "Ġavailable": 2429,
      "Ġhowever": 2430,
      "Ġsea": 2431,
      "Ġcountries": 2432,
      "urch": 2433,
      "Ġangry": 2434,
      "Ġdiv": 2435,
      "lands": 2436,
      "ude": 2437,
      "oring": 2438,
      "Ġ0": 2439,
      "body": 2440,
      "rem": 2441,
      "ĠSy": 2442,
      "bo": 2443,
      "Ġsignific": 2444,
      "Ġeither": 2445,
      "For": 2446,
      "Ġlocal": 2447,
      "ators": 2448,
      "Ġmeasure": 2449,
      "ĠWith": 2450,
      "bon": 2451,
      "Ġbring": 2452,
      "Be": 2453,
      "Can": 2454,
      "Ġfarm": 2455,
      "Ġround": 2456,
      "Ġstep": 2457,
      "Ġdro": 2458,
      "oid": 2459,
      "icy": 2460,
      "Ġlate": 2461,
      "idge": 2462,
      "ĠFrench": 2463,
      "Why": 2464,
      "Ġcold": 2465,
      "ients": 2466,
      "Ġassoci": 2467,
      "ded": 2468,
      "Ġbrought": 2469,
      "Ġkids": 2470,
      "Ġill": 2471,
      "ows": 2472,
      "Ġchem": 2473,
      "Ġwanna": 2474,
      "upp": 2475,
      "Ġenc": 2476,
      "ĠAmerica": 2477,
      "ges": 2478,
      "Ġeveryone": 2479,
      "ask": 2480,
      "ĠCanad": 2481,
      "Ġsand": 2482,
      "After": 2483,
      "Ġge": 2484,
      "Ġpercent": 2485,
      "ĠJune": 2486,
      "ĠJuly": 2487,
      "Ġmiss": 2488,
      "Ġfunction": 2489,
      "ĠAm": 2490,
      "Ġpicture": 2491,
      "Ġcreated": 2492,
      "Ġtreatment": 2493,
      "Ġmic": 2494,
      "Ġnorm": 2495,
      "Ġ2001": 2496,
      "Ġworked": 2497,
      "ĠFebruary": 2498,
      "Ġquite": 2499,
      "Ġsomeone": 2500,
      "Ġadvent": 2501,
      "ĠEd": 2502,
      "Ġfeet": 2503,
      "ana": 2504,
      "Ġdress": 2505,
      "Ġflowers": 2506,
      "Thank": 2507,
      "ĠII": 2508,
      "ortun": 2509,
      "Ġgeneral": 2510,
      "ĠAustral": 2511,
      "alt": 2512,
      "Ġdin": 2513,
      "ĠDr": 2514,
      "omes": 2515,
      "asing": 2516,
      "ler": 2517,
      "Ġwall": 2518,
      "iddle": 2519,
      "Ġcancer": 2520,
      "Ġbrave": 2521,
      "ague": 2522,
      "ĠWill": 2523,
      "ĠMed": 2524,
      "ĠNo": 2525,
      "Ġremember": 2526,
      "Ġinf": 2527,
      "ĠHar": 2528,
      "Ġrepresent": 2529,
      "Ġfootball": 2530,
      "Ġwalking": 2531,
      "Ġneeds": 2532,
      "Ġeverything": 2533,
      "Ġbusiness": 2534,
      "Ġauthor": 2535,
      "agn": 2536,
      "olly": 2537,
      "Ġfell": 2538,
      "Ġcool": 2539,
      "Ġespecially": 2540,
      "ocus": 2541,
      "ĠEarth": 2542,
      "Ġtrying": 2543,
      "Ġwrong": 2544,
      "ĠGo": 2545,
      "Ġbuilding": 2546,
      "Ġbehav": 2547,
      "Look": 2548,
      "Ġfloor": 2549,
      "ique": 2550,
      "ĠPres": 2551,
      "Ġflew": 2552,
      "uture": 2553,
      "Ġnothing": 2554,
      "ĠSw": 2555,
      "val": 2556,
      "Ġlevels": 2557,
      "Ġpick": 2558,
      "Ġtaking": 2559,
      "ming": 2560,
      "itc": 2561,
      "ĠCounty": 2562,
      "ĠGu": 2563,
      "Ġstopped": 2564,
      "ivil": 2565,
      "Ġkn": 2566,
      "ocks": 2567,
      "Ġactually": 2568,
      "ief": 2569,
      "ucy": 2570,
      "ĠÃ¢": 2571,
      "Ġgroups": 2572,
      "Ġdest": 2573,
      "__": 2574,
      "Ġra": 2575,
      "like": 2576,
      "Ġpubl": 2577,
      "uct": 2578,
      "ruction": 2579,
      "Ġ11": 2580,
      "ledge": 2581,
      "Ġmass": 2582,
      "Ġchanges": 2583,
      "gen": 2584,
      "Ġgrand": 2585,
      "Ġvisit": 2586,
      "Ġreached": 2587,
      "Ġvarious": 2588,
      "Ġmovies": 2589,
      "Ġnet": 2590,
      "ĠEl": 2591,
      "Ġdepend": 2592,
      "Ġsystems": 2593,
      "Ġrather": 2594,
      "198": 2595,
      "Ġpay": 2596,
      "Ġcy": 2597,
      "Ġmoment": 2598,
      "ift": 2599,
      "Ġexist": 2600,
      "Ġann": 2601,
      "estern": 2602,
      "23": 2603,
      "Ġtypes": 2604,
      "mp": 2605,
      "ĠBy": 2606,
      "Ġcreate": 2607,
      "aching": 2608,
      "Ġlikely": 2609,
      "ptoms": 2610,
      "Ġbright": 2611,
      "At": 2612,
      "ades": 2613,
      "Ġcrit": 2614,
      "Ġindust": 2615,
      "Ġprop": 2616,
      "inally": 2617,
      "ially": 2618,
      "sc": 2619,
      "Ġdeep": 2620,
      "Ġsou": 2621,
      "Ġarri": 2622,
      "Ġlonger": 2623,
      "Ġengine": 2624,
      "Ġquestion": 2625,
      "Ġstick": 2626,
      "ctions": 2627,
      "Ġsurface": 2628,
      "Ġways": 2629,
      "Ġtelevision": 2630,
      "Ġfair": 2631,
      "mm": 2632,
      "ils": 2633,
      "Ġprim": 2634,
      "ĠGen": 2635,
      "atures": 2636,
      "Ġfront": 2637,
      "Ġrole": 2638,
      "Ġcolle": 2639,
      "Ġ25": 2640,
      "ols": 2641,
      "Ġcannot": 2642,
      "laugh": 2643,
      "Ġparty": 2644,
      "edi": 2645,
      "ta": 2646,
      "Ġdig": 2647,
      "Ġbuy": 2648,
      "ĠGerman": 2649,
      "Ġdrink": 2650,
      "Ġstar": 2651,
      "bye": 2652,
      "eds": 2653,
      "Ġfollowed": 2654,
      "rodu": 2655,
      "Ġparts": 2656,
      "ĠMe": 2657,
      "Ġinflu": 2658,
      "Ġfix": 2659,
      "Ġexpect": 2660,
      "Ġsweet": 2661,
      "Ġ=": 2662,
      "Ġgas": 2663,
      "30": 2664,
      "Ġself": 2665,
      "Ġyellow": 2666,
      "got": 2667,
      "ables": 2668,
      "Ġaccess": 2669,
      "Ġconditions": 2670,
      "ume": 2671,
      "ires": 2672,
      "Ġbuilt": 2673,
      "ĠMan": 2674,
      "ware": 2675,
      "Ġboat": 2676,
      "inks": 2677,
      "str": 2678,
      "Ġphot": 2679,
      "Ġreason": 2680,
      "oose": 2681,
      "Ġturned": 2682,
      "Ġsignificant": 2683,
      "Ġmembers": 2684,
      "ips": 2685,
      "Ġfurther": 2686,
      "Ġimpact": 2687,
      "Ġgrass": 2688,
      "Ġsold": 2689,
      "Ġrunning": 2690,
      "ken": 2691,
      "Ġwonder": 2692,
      "Ġconsider": 2693,
      "Ġcamp": 2694,
      "Ġpicked": 2695,
      "Ġthemselves": 2696,
      "ĠGeor": 2697,
      "Ġmouth": 2698,
      "pper": 2699,
      "ON": 2700,
      "Ġincrease": 2701,
      "Ġhelped": 2702,
      "itary": 2703,
      "Ġcollect": 2704,
      "Ġfavor": 2705,
      "ploy": 2706,
      "hel": 2707,
      "Ġnorth": 2708,
      "Ġfig": 2709,
      "Ġess": 2710,
      "Ġredu": 2711,
      "unch": 2712,
      "Ġinvest": 2713,
      "Ġrul": 2714,
      "Ġfocus": 2715,
      "Ġsize": 2716,
      "Ġanimal": 2717,
      "Ġresults": 2718,
      "iol": 2719,
      "Ġpopular": 2720,
      ".]": 2721,
      "Ġagre": 2722,
      "Ġdiscuss": 2723,
      "Ġrecogn": 2724,
      "itting": 2725,
      "ĠRiver": 2726,
      "Ġtakes": 2727,
      "cret": 2728,
      "Ġ24": 2729,
      "Ġdeaths": 2730,
      "ĠRuss": 2731,
      "airs": 2732,
      "ec": 2733,
      "ively": 2734,
      "Ġson": 2735,
      "Ġbirth": 2736,
      "Ġfuture": 2737,
      "ĠPart": 2738,
      "Ġabs": 2739,
      "Ġbelow": 2740,
      "AD": 2741,
      "ray": 2742,
      "ĠLet": 2743,
      "ateg": 2744,
      "Ġsens": 2745,
      "zz": 2746,
      "Ġnecess": 2747,
      "ĠĊĠĊ": 2748,
      "Ġweek": 2749,
      "AS": 2750,
      "Ġpoor": 2751,
      "Ġsmile": 2752,
      "Ġrab": 2753,
      "Ġwhether": 2754,
      "illy": 2755,
      "ĠChar": 2756,
      "iation": 2757,
      "Ġtouch": 2758,
      "Ġcirc": 2759,
      "urg": 2760,
      "Ġleaves": 2761,
      "ival": 2762,
      "Ġresearc": 2763,
      "Ġriver": 2764,
      "gar": 2765,
      "Ġmodern": 2766,
      "ES": 2767,
      "Ġhappen": 2768,
      "Ġeducation": 2769,
      "raft": 2770,
      "Ġnut": 2771,
      "Ġpred": 2772,
      "Ġrespons": 2773,
      "Ġshout": 2774,
      "Ġwoman": 2775,
      "Ġroad": 2776,
      "Ġcommunity": 2777,
      "Ġalone": 2778,
      "Ġsoci": 2779,
      "Ġdeveloped": 2780,
      "Now": 2781,
      "ography": 2782,
      "Ġvide": 2783,
      "Ġreplied": 2784,
      "rote": 2785,
      "Ġled": 2786,
      "25": 2787,
      "acc": 2788,
      "Ġtruck": 2789,
      "aged": 2790,
      "Ġshall": 2791,
      "ribut": 2792,
      "ino": 2793,
      "see": 2794,
      "Ġbag": 2795,
      "Do": 2796,
      "ĠSte": 2797,
      "Ġtot": 2798,
      "wo": 2799,
      "Ġreleased": 2800,
      "oph": 2801,
      "Ġlower": 2802,
      "aul": 2803,
      "Ġcases": 2804,
      "Ġtowards": 2805,
      "Ġsuper": 2806,
      "ising": 2807,
      "Ġwild": 2808,
      "Ġgrab": 2809,
      "Ġgames": 2810,
      "unt": 2811,
      "Ġrange": 2812,
      "Ġking": 2813,
      "reg": 2814,
      "Ġmount": 2815,
      "Ġfrog": 2816,
      "Ġshiny": 2817,
      "Ġvers": 2818,
      "Tim": 2819,
      "ification": 2820,
      "Ġsubject": 2821,
      "Ġcontinued": 2822,
      "Ġrelations": 2823,
      "istic": 2824,
      "ĠCity": 2825,
      "ĠIndian": 2826,
      "Ġwritten": 2827,
      "Ġcaused": 2828,
      "Ġamaz": 2829,
      "Ġtrue": 2830,
      "omin": 2831,
      "Ġfail": 2832,
      "Ġsymptoms": 2833,
      "Ġspread": 2834,
      "Ġdoctor": 2835,
      "icip": 2836,
      "iforn": 2837,
      "mb": 2838,
      "this": 2839,
      "Ġmach": 2840,
      "Ġmodel": 2841,
      "Ġconside": 2842,
      "uel": 2843,
      "Ġconsidered": 2844,
      "Ġegg": 2845,
      "iting": 2846,
      "Ġexperience": 2847,
      "bor": 2848,
      "Ġscience": 2849,
      "Ġquestions": 2850,
      "chie": 2851,
      "ining": 2852,
      "Ġcompet": 2853,
      "Ġdanger": 2854,
      "ournal": 2855,
      "bum": 2856,
      "ference": 2857,
      "ĠEngland": 2858,
      "cean": 2859,
      "uk": 2860,
      "EX": 2861,
      "Âł": 2862,
      "Ġshows": 2863,
      "Ġwasn": 2864,
      "roll": 2865,
      "int": 2866,
      "Ġhop": 2867,
      "Ġhours": 2868,
      "Ġindividual": 2869,
      "Ġpiece": 2870,
      "Ġactivity": 2871,
      "Ġpolitical": 2872,
      "All": 2873,
      "Ġ,": 2874,
      "Ġloss": 2875,
      "Ġproduction": 2876,
      "Ġvalue": 2877,
      "Ġpath": 2878,
      "www": 2879,
      "Ġcatch": 2880,
      "she": 2881,
      "ifornia": 2882,
      "uation": 2883,
      "ician": 2884,
      "obal": 2885,
      "Ġtext": 2886,
      "alys": 2887,
      "Ġarm": 2888,
      "âĦ": 2889,
      "Ġskin": 2890,
      "ĠIndia": 2891,
      "ais": 2892,
      "Ġbutter": 2893,
      "undred": 2894,
      "Ġfac": 2895,
      "ograph": 2896,
      "Ġnoticed": 2897,
      "mhm": 2898,
      "Ġcast": 2899,
      "ĠPol": 2900,
      "Ġver": 2901,
      "Ġcloser": 2902,
      "Ġeffects": 2903,
      "=\"": 2904,
      "Ġsepar": 2905,
      "Ġpers": 2906,
      "Ġ$": 2907,
      "they": 2908,
      "Ġrelig": 2909,
      "itch": 2910,
      "Ġmonths": 2911,
      "Ġ100": 2912,
      "Ġwants": 2913,
      "Then": 2914,
      "Ġlady": 2915,
      "Ġvill": 2916,
      "Ġearth": 2917,
      "âĦ¢": 2918,
      "Ġreact": 2919,
      "Is": 2920,
      "ĠNow": 2921,
      "Ġcoll": 2922,
      "ilities": 2923,
      "othes": 2924,
      "Ġfeed": 2925,
      "arah": 2926,
      "arr": 2927,
      "Ġcross": 2928,
      "ĠLucy": 2929,
      "Ġmoved": 2930,
      "Ġpage": 2931,
      "Ġinstead": 2932,
      "ille": 2933,
      "urb": 2934,
      "ĠMiss": 2935,
      "iction": 2936,
      "Ġcomputer": 2937,
      "Ġcarry": 2938,
      "huh": 2939,
      "Ġnodded": 2940,
      "Ġband": 2941,
      "Ġtechnology": 2942,
      "Ġport": 2943,
      "Ġprobably": 2944,
      "unny": 2945,
      "Ġadult": 2946,
      "Ġep": 2947,
      "Ġmember": 2948,
      "erve": 2949,
      "Ġtrain": 2950,
      "Ġconc": 2951,
      "Ġclimate": 2952,
      "anced": 2953,
      "ĠCalifornia": 2954,
      "Ġknowledge": 2955,
      "yle": 2956,
      "24": 2957,
      "eared": 2958,
      "ila": 2959,
      "Ġpublished": 2960,
      "ops": 2961,
      "Ġslide": 2962,
      "ground": 2963,
      "Ġhistor": 2964,
      "ĠPal": 2965,
      "Ġ2020": 2966,
      "Ġcand": 2967,
      "Ben": 2968,
      "Ġcompany": 2969,
      "light": 2970,
      "HE": 2971,
      "Ġglad": 2972,
      "Ġitself": 2973,
      "Ġrespect": 2974,
      "Ġlives": 2975,
      "Ġfem": 2976,
      "Ġdead": 2977,
      "ĠWest": 2978,
      "ĠMommy": 2979,
      "Ġseason": 2980,
      "Ġactivities": 2981,
      "osis": 2982,
      "Ġsnow": 2983,
      "ald": 2984,
      "oles": 2985,
      "Ġaccount": 2986,
      "Ġbow": 2987,
      "rect": 2988,
      "Ġeight": 2989,
      "AN": 2990,
      "ha": 2991,
      "âĤ¬âĦ¢": 2992,
      "ensive": 2993,
      "Ġdry": 2994,
      "head": 2995,
      "Ġpressure": 2996,
      "ĠPresident": 2997,
      "Ġestablish": 2998,
      "Ġstates": 2999,
      "ram": 3000,
      "Ġap": 3001,
      "Ġones": 3002,
      "itchen": 3003,
      "RO": 3004,
      "ondon": 3005,
      "Ġfinished": 3006,
      "aving": 3007,
      "Ġsoil": 3008,
      "Ġimprove": 3009,
      "197": 3010,
      "Ġphysical": 3011,
      "Ġreading": 3012,
      "Ġsource": 3013,
      "Ġbenef": 3014,
      "verage": 3015,
      "Ġformer": 3016,
      "Ġwriting": 3017,
      "Ġsite": 3018,
      "Ġsouth": 3019,
      "Ġfrequ": 3020,
      "Wh": 3021,
      "adem": 3022,
      "Ġfat": 3023,
      "sing": 3024,
      "Ġspeak": 3025,
      "Ġcup": 3026,
      "Ġdecl": 3027,
      "Ġago": 3028,
      "Ġnature": 3029,
      "Ġplaces": 3030,
      "Ġswim": 3031,
      "astic": 3032,
      "know": 3033,
      "omas": 3034,
      "Ġhope": 3035,
      "agon": 3036,
      "To": 3037,
      "anish": 3038,
      "uge": 3039,
      "Ġrequire": 3040,
      "Ġwrite": 3041,
      "Ġentire": 3042,
      "Ġtrou": 3043,
      "Ġstudies": 3044,
      "Ġplayer": 3045,
      "ĠStud": 3046,
      "Ġindic": 3047,
      "ĠAss": 3048,
      "Ġdescrib": 3049,
      "men": 3050,
      "Ġminutes": 3051,
      "Ġarg": 3052,
      "Ġeff": 3053,
      "ĠJoe": 3054,
      "how": 3055,
      "Ġcars": 3056,
      "ocr": 3057,
      "ĠState": 3058,
      "//": 3059,
      "Ġwatched": 3060,
      "Ġskills": 3061,
      "used": 3062,
      "Ġmagn": 3063,
      "ĠPer": 3064,
      "Ġhundred": 3065,
      "ashing": 3066,
      "amin": 3067,
      "chan": 3068,
      "orrow": 3069,
      "Ġtast": 3070,
      "reet": 3071,
      "Ġcake": 3072,
      "ounc": 3073,
      "Ġnor": 3074,
      "order": 3075,
      "Ġten": 3076,
      "Ġ2010": 3077,
      "Ġkitchen": 3078,
      "ging": 3079,
      "EXP": 3080,
      "Ġreach": 3081,
      "Ġresearchers": 3082,
      "Ġeasy": 3083,
      "gress": 3084,
      "fact": 3085,
      "Ġevidence": 3086,
      "Ġnumbers": 3087,
      "Ġcou": 3088,
      "Ġspot": 3089,
      "60": 3090,
      "Ġpack": 3091,
      "):": 3092,
      "Ġarch": 3093,
      "Ġoriginal": 3094,
      "Ġposition": 3095,
      "Ġfunny": 3096,
      "anks": 3097,
      "Ġmix": 3098,
      "Ġperfect": 3099,
      "Ġsimple": 3100,
      "Ġaddition": 3101,
      "Ġtemperature": 3102,
      "Ġflu": 3103,
      "Ġkill": 3104,
      "Ġ1999": 3105,
      "uals": 3106,
      "uth": 3107,
      "enty": 3108,
      "Ġalbum": 3109,
      "Ġwindow": 3110,
      "Ġpractice": 3111,
      "istics": 3112,
      "ĠAg": 3113,
      "Ġthird": 3114,
      "sych": 3115,
      "oral": 3116,
      "ham": 3117,
      "empt": 3118,
      "iant": 3119,
      "ror": 3120,
      "Ġrate": 3121,
      "Ġpattern": 3122,
      "Ġanymore": 3123,
      "Ġconcept": 3124,
      "ĠPhil": 3125,
      "ius": 3126,
      "ĠRoman": 3127,
      "De": 3128,
      "laughs": 3129,
      "pos": 3130,
      "Ġanswer": 3131,
      "Ġ2002": 3132,
      "Ġtalking": 3133,
      "ugs": 3134,
      "ĠGrand": 3135,
      "Ġeating": 3136,
      "Ġachie": 3137,
      "Ġlesson": 3138,
      "Ġhole": 3139,
      "ivity": 3140,
      "Okay": 3141,
      "Ġcorn": 3142,
      "Ġhealthy": 3143,
      "Ġeye": 3144,
      "Ġrelated": 3145,
      "Ġhat": 3146,
      "fort": 3147,
      "ĠGermany": 3148,
      "Ġchemical": 3149,
      "ĠJew": 3150,
      "pping": 3151,
      "Ġgrowth": 3152,
      "ying": 3153,
      "Ġthank": 3154,
      "Ġindepend": 3155,
      "Ġi": 3156,
      "Ġarticle": 3157,
      "Ġcried": 3158,
      "Ġtravel": 3159,
      "Ġrabbit": 3160,
      "Ġroll": 3161,
      "ello": 3162,
      "ĠLondon": 3163,
      "reek": 3164,
      "My": 3165,
      "ĠMary": 3166,
      "Ġsurv": 3167,
      "Ġproduced": 3168,
      "ĠGl": 3169,
      "Ġworry": 3170,
      "://": 3171,
      "Ġtired": 3172,
      "Ġheat": 3173,
      "lement": 3174,
      "iment": 3175,
      "Ġsex": 3176,
      "ID": 3177,
      "Ġhon": 3178,
      "iff": 3179,
      "Ġproduc": 3180,
      "che": 3181,
      "ĠDav": 3182,
      "ĠSm": 3183,
      "Ġrights": 3184,
      "haps": 3185,
      "ĠNor": 3186,
      "Ġstri": 3187,
      "40": 3188,
      "Ġteacher": 3189,
      "Ġpoints": 3190,
      "play": 3191,
      "ĠSue": 3192,
      "itted": 3193,
      "cks": 3194,
      "28": 3195,
      "Ġproduce": 3196,
      "Ġimag": 3197,
      "Ġstars": 3198,
      "aches": 3199,
      "Ġpul": 3200,
      "Ġuh": 3201,
      "Ġbroken": 3202,
      "Ġdou": 3203,
      "hold": 3204,
      "iers": 3205,
      "Ġfamil": 3206,
      "ĠMc": 3207,
      "MA": 3208,
      "Ġmaterials": 3209,
      "apt": 3210,
      "Ġheavy": 3211,
      "ressed": 3212,
      "ĠQu": 3213,
      "Ġox": 3214,
      "amb": 3215,
      "Ġfavorite": 3216,
      "omen": 3217,
      "Ġtotal": 3218,
      "29": 3219,
      "Ġresources": 3220,
      "sequ": 3221,
      "27": 3222,
      "Her": 3223,
      "vere": 3224,
      "Ġherself": 3225,
      "cy": 3226,
      "Ġvideo": 3227,
      "Ġ50": 3228,
      "ĠAct": 3229,
      "Ġburn": 3230,
      "Ġrace": 3231,
      "TE": 3232,
      "ibility": 3233,
      "Ġsort": 3234,
      "att": 3235,
      "Ġdeg": 3236,
      "fly": 3237,
      "Ġda": 3238,
      "Ġaccept": 3239,
      "Ġwet": 3240,
      "ounds": 3241,
      "Ġord": 3242,
      "irt": 3243,
      "alysis": 3244,
      "Ġchall": 3245,
      "Ġcomplex": 3246,
      "Ġdetail": 3247,
      "fficient": 3248,
      "Ġ21": 3249,
      "Ġweight": 3250,
      "Ġtall": 3251,
      "Ġwrote": 3252,
      "Un": 3253,
      "Ġopt": 3254,
      "Ġpet": 3255,
      "Ġliter": 3256,
      "Ġinit": 3257,
      "ĠSuddenly": 3258,
      "Ġaccording": 3259,
      "26": 3260,
      "aughter": 3261,
      "set": 3262,
      "Ġadded": 3263,
      "just": 3264,
      "Ġforce": 3265,
      "iqu": 3266,
      "Ġbur": 3267,
      "Ġwide": 3268,
      "Ġsaf": 3269,
      "Ġscientists": 3270,
      "irm": 3271,
      "ĠJane": 3272,
      "Ġstudent": 3273,
      "inary": 3274,
      "Ġcurious": 3275,
      "Ġincreased": 3276,
      "Ġcarbon": 3277,
      "Ġstructure": 3278,
      "Ġmeaning": 3279,
      "ica": 3280,
      "ĠSchool": 3281,
      "Ġthous": 3282,
      "Suddenly": 3283,
      "Ġpretend": 3284,
      "Ġmilk": 3285,
      "atives": 3286,
      "Ġcover": 3287,
      "who": 3288,
      "Ġgold": 3289,
      "Ã¡": 3290,
      "lex": 3291,
      "icks": 3292,
      "Ġblocks": 3293,
      "OR": 3294,
      "Ġunderstanding": 3295,
      "Ġsaying": 3296,
      "Ġbreat": 3297,
      "Ġrefer": 3298,
      "ï¿": 3299,
      "iber": 3300,
      "ĠBar": 3301,
      "Ġwouldn": 3302,
      "Ġ23": 3303,
      "ï¿½": 3304,
      "Ġability": 3305,
      "May": 3306,
      "aff": 3307,
      "Ġassociated": 3308,
      "ĠEuropean": 3309,
      "ford": 3310,
      "Ġuses": 3311,
      "Ġtail": 3312,
      "Ġpull": 3313,
      "earch": 3314,
      "ula": 3315,
      "ugg": 3316,
      "erved": 3317,
      "hood": 3318,
      "elling": 3319,
      "irty": 3320,
      "ĠWilliam": 3321,
      "eal": 3322,
      "Ġaction": 3323,
      "Ġfinally": 3324,
      "Ġsees": 3325,
      "Ġcop": 3326,
      "Ġast": 3327,
      "Ġnormal": 3328,
      "ĠMon": 3329,
      "Ġrelationship": 3330,
      "Ġparticip": 3331,
      "Ġthroughout": 3332,
      "Ġstage": 3333,
      "ĠMany": 3334,
      "Ġcolors": 3335,
      "ancy": 3336,
      "Ġconsum": 3337,
      "Ġpotential": 3338,
      "Ġcondition": 3339,
      "oom": 3340,
      "Ġsuccessful": 3341,
      "Ġmedical": 3342,
      "Ġhung": 3343,
      "ĠMy": 3344,
      "Ġcompl": 3345,
      "Ġcard": 3346,
      "ĠAng": 3347,
      "Ġpieces": 3348,
      "Ġmarket": 3349,
      "Ġregular": 3350,
      ".)": 3351,
      "Ġfund": 3352,
      "Ġate": 3353,
      "unicip": 3354,
      "Ġviol": 3355,
      "Ġneigh": 3356,
      "Come": 3357,
      "ommend": 3358,
      "Ġprevious": 3359,
      "ĠSpot": 3360,
      "Ġrev": 3361,
      "Ġclaim": 3362,
      "Ġserious": 3363,
      "ucle": 3364,
      "ply": 3365,
      "Ġcauses": 3366,
      "Ġmilitary": 3367,
      "From": 3368,
      "Ġlargest": 3369,
      "ervation": 3370,
      "Ġyeah": 3371,
      "Ġbacter": 3372,
      "Ġevents": 3373,
      "Ġsense": 3374,
      "Ġcapital": 3375,
      "icles": 3376,
      "Ġshown": 3377,
      "Ġbal": 3378,
      "Ġpatients": 3379,
      "ccording": 3380,
      "exic": 3381,
      "Ġemploy": 3382,
      "Ġproducts": 3383,
      "ĠDon": 3384,
      "Ġfamous": 3385,
      "Ġquality": 3386,
      "usion": 3387,
      "Ġcontent": 3388,
      "ĠChina": 3389,
      "olic": 3390,
      "Ġrequired": 3391,
      "Ġthinking": 3392,
      "ĠDep": 3393,
      "Ġbase": 3394,
      "Ġens": 3395,
      "ĠMus": 3396,
      "Ġpriv": 3397,
      "Ġmovement": 3398,
      "apes": 3399,
      "Ġbill": 3400,
      "fection": 3401,
      "Ġlog": 3402,
      "Ġinj": 3403,
      "ears": 3404,
      "Ġcheck": 3405,
      "Ġconcern": 3406,
      "asc": 3407,
      "Ġflower": 3408,
      "Ġ2011": 3409,
      "Ġpictures": 3410,
      "hib": 3411,
      "span": 3412,
      "ran": 3413,
      "itation": 3414,
      "ander": 3415,
      "imate": 3416,
      "Ġterms": 3417,
      "Ġaw": 3418,
      "cip": 3419,
      "Ġprep": 3420,
      "minist": 3421,
      "Ġut": 3422,
      "Ġhit": 3423,
      "icine": 3424,
      "Ġreduce": 3425,
      "Ġgives": 3426,
      "aries": 3427,
      "Ġdoc": 3428,
      "Ġservice": 3429,
      "ength": 3430,
      "Ġboys": 3431,
      "Ġoil": 3432,
      "ĠSarah": 3433,
      "inn": 3434,
      "acks": 3435,
      "ĠCo": 3436,
      "Ġpatient": 3437,
      "Ġemer": 3438,
      "yl": 3439,
      "ceed": 3440,
      "aint": 3441,
      "Ġinfect": 3442,
      "Ġmiddle": 3443,
      "don": 3444,
      "Ġearl": 3445,
      "ĠWhile": 3446,
      "Ġincludes": 3447,
      "Ġsal": 3448,
      "Ġmicro": 3449,
      "Ġseemed": 3450,
      "reng": 3451,
      "Ġchair": 3452,
      "unk": 3453,
      "Ġnecessary": 3454,
      "Ġ2012": 3455,
      "Ġforms": 3456,
      "Ġkilled": 3457,
      "Ġteeth": 3458,
      "Ġdiet": 3459,
      "Ġfa": 3460,
      "Ġju": 3461,
      "Ġspl": 3462,
      "Ġancient": 3463,
      "80": 3464,
      "Ġmouse": 3465,
      "Ġbott": 3466,
      "Ġhorse": 3467,
      "Ġneg": 3468,
      "Ġrealized": 3469,
      "ĠLeague": 3470,
      "OS": 3471,
      "ricult": 3472,
      "Ġdeal": 3473,
      "Ġadventure": 3474,
      "ights": 3475,
      "Ġarrived": 3476,
      "ĠJim": 3477,
      "Ġcontain": 3478,
      "Ġsongs": 3479,
      "Cl": 3480,
      "Ġconnect": 3481,
      "Ġyourself": 3482,
      "Ġlif": 3483,
      "Ġmechan": 3484,
      "Ġsister": 3485,
      "Ġmum": 3486,
      "ĠAfrica": 3487,
      "cri": 3488,
      "Ġharm": 3489,
      "Ġgoodbye": 3490,
      "Ġsail": 3491,
      "Ġpen": 3492,
      "Ġletter": 3493,
      "Ġpig": 3494,
      "Ġveget": 3495,
      "Ġcarefully": 3496,
      "Ġgets": 3497,
      "Ġdefe": 3498,
      "izing": 3499,
      "Ġfing": 3500,
      "Ġpond": 3501,
      "Ġâ": 3502,
      "Ġopportun": 3503,
      "Ġhyd": 3504,
      "amer": 3505,
      "Ġsurprise": 3506,
      "lished": 3507,
      "Ġmaintain": 3508,
      "ĠKe": 3509,
      "Ġbelong": 3510,
      "abor": 3511,
      "ores": 3512,
      "ternal": 3513,
      "Ġhost": 3514,
      "Ġattempt": 3515,
      "Ġ26": 3516,
      "Ġfactors": 3517,
      "board": 3518,
      "ĠCont": 3519,
      "Ġjumped": 3520,
      "Ġdream": 3521,
      "ĠHealth": 3522,
      "EN": 3523,
      "Ġstories": 3524,
      "Ġelectric": 3525,
      "Ġsounds": 3526,
      "Ġcivil": 3527,
      "ems": 3528,
      "Ġhelps": 3529,
      "ucky": 3530,
      "ushed": 3531,
      "Ġeconomic": 3532,
      "Ġwear": 3533,
      "ĠDes": 3534,
      "Ġwish": 3535,
      "Ġthreat": 3536,
      "bered": 3537,
      "ederal": 3538,
      "Ġtend": 3539,
      "tr": 3540,
      "Ġreceived": 3541,
      "Ġrecommend": 3542,
      "ĠSch": 3543,
      "Ġchanged": 3544,
      "rs": 3545,
      "onse": 3546,
      "ospital": 3547,
      "bl": 3548,
      "II": 3549,
      "Ġfine": 3550,
      "Ġfit": 3551,
      "Ġclothes": 3552,
      "Ġlikes": 3553,
      "omet": 3554,
      "ĠLa": 3555,
      "Sh": 3556,
      "anch": 3557,
      "ĠAc": 3558,
      "ulations": 3559,
      "ĠAustralia": 3560,
      "ĠMost": 3561,
      "Ġincluded": 3562,
      "omb": 3563,
      "Ġ27": 3564,
      "uments": 3565,
      "Not": 3566,
      "ĠCanada": 3567,
      "Ġdaughter": 3568,
      "abet": 3569,
      "Ġdamage": 3570,
      "Ġresist": 3571,
      "Ġ28": 3572,
      "Ġdisapp": 3573,
      "Ġglobal": 3574,
      "ĠJapanese": 3575,
      "Ġfilled": 3576,
      "Ġproduct": 3577,
      "Ġpassed": 3578,
      "urity": 3579,
      "Ġvirus": 3580,
      "Ġregard": 3581,
      "Ġcapt": 3582,
      "Ġrelative": 3583,
      "Ġ2007": 3584,
      "Ġ2013": 3585,
      "Ġthrow": 3586,
      "Ġforgot": 3587,
      "Ġship": 3588,
      "Ġerm": 3589,
      "ĠMexic": 3590,
      "Ġdiscovered": 3591,
      "oly": 3592,
      "ĠRepublic": 3593,
      "Ġattention": 3594,
      "Ġalthough": 3595,
      "Ġdinner": 3596,
      "Ġpoll": 3597,
      "Ġaverage": 3598,
      "Ġspeed": 3599,
      "Ġeffective": 3600,
      "Ġtar": 3601,
      "Ġwife": 3602,
      "Ġissues": 3603,
      "ĠRed": 3604,
      "Ġsend": 3605,
      "ĠGovern": 3606,
      "Ġgenerally": 3607,
      "Ġdelic": 3608,
      "Ġmole": 3609,
      "Ġ2008": 3610,
      "Ġtom": 3611,
      "Ġbrown": 3612,
      "ĠPat": 3613,
      "Ġculture": 3614,
      "rial": 3615,
      "Ġcomplete": 3616,
      "asons": 3617,
      "Hey": 3618,
      "raz": 3619,
      "Ġ29": 3620,
      "Ġagreed": 3621,
      "ĠThomas": 3622,
      "Ex": 3623,
      "Ġexact": 3624,
      "||||": 3625,
      "cles": 3626,
      "Ġquiet": 3627,
      "Ġhtt": 3628,
      "Ġaff": 3629,
      "Ġpages": 3630,
      "Ġ2005": 3631,
      "Ġideas": 3632,
      "inese": 3633,
      "Ġshouted": 3634,
      "Ġtheory": 3635,
      "Ġshape": 3636,
      "roy": 3637,
      "Ġmiles": 3638,
      "ĠInstit": 3639,
      "Ġ2017": 3640,
      "à¤": 3641,
      "Ġhumans": 3642,
      "Ġclimb": 3643,
      "ĠEast": 3644,
      "Ġ2003": 3645,
      "Ġcareer": 3646,
      "Ġgrowing": 3647,
      "Ġexerc": 3648,
      "iles": 3649,
      "Just": 3650,
      "Ġdepartment": 3651,
      "Ġgrad": 3652,
      "rav": 3653,
      "Ġstreng": 3654,
      "ĠÂ": 3655,
      "Ġsociety": 3656,
      "urs": 3657,
      "Ġpersonal": 3658,
      "ĠGreat": 3659,
      "Ġofficial": 3660,
      "ĠPark": 3661,
      "Ġformed": 3662,
      "Ġcoast": 3663,
      "Ġdesigned": 3664,
      "Ġsearch": 3665,
      "Hello": 3666,
      "Ġbeginning": 3667,
      "Ġbehavior": 3668,
      "mon": 3669,
      "ris": 3670,
      "Ġ2009": 3671,
      "Ġdescri": 3672,
      "Ġremem": 3673,
      "ĠAfrican": 3674,
      "aph": 3675,
      "Ġactors": 3676,
      "ky": 3677,
      "utions": 3678,
      "ĠCO": 3679,
      "orks": 3680,
      "Ġinteract": 3681,
      "Ġ2006": 3682,
      "Sp": 3683,
      "itor": 3684,
      "Ġgun": 3685,
      "Ġcontact": 3686,
      "Ġtit": 3687,
      "Ġinvolved": 3688,
      "Ġprovides": 3689,
      "Ġconduct": 3690,
      "Ġ2004": 3691,
      "Ġplayers": 3692,
      "Ġetc": 3693,
      "Ġbeg": 3694,
      "ĠHouse": 3695,
      "ĠJe": 3696,
      "itude": 3697,
      "ĠBlack": 3698,
      "Ġallowed": 3699,
      "Ġincreasing": 3700,
      "ĠInternational": 3701,
      "Ġlarger": 3702,
      "ether": 3703,
      "co": 3704,
      "elled": 3705,
      "iger": 3706,
      "Ġeasily": 3707,
      "ĠGeorge": 3708,
      "Ġprot": 3709,
      "time": 3710,
      "oint": 3711,
      "lebr": 3712,
      "Ġ2014": 3713,
      "Ġdangerous": 3714,
      "Pe": 3715,
      "ĠSan": 3716,
      "Ġdistance": 3717,
      "ĠMich": 3718,
      "Ġestablished": 3719,
      "Ġgrabbed": 3720,
      "Ġsubst": 3721,
      "Where": 3722,
      "ĠComp": 3723,
      "Ġcompan": 3724,
      "Ġtax": 3725,
      "Ġvariety": 3726,
      "Ġprovided": 3727,
      "Ġisland": 3728,
      "ĠFirst": 3729,
      "Ġaf": 3730,
      "Ġseven": 3731,
      "Ar": 3732,
      "enced": 3733,
      "ĠMrs": 3734,
      "imately": 3735,
      "Ġpeace": 3736,
      "ully": 3737,
      "Ġ_": 3738,
      "arily": 3739,
      "Ġsmaller": 3740,
      "Living": 3741,
      "Mommy": 3742,
      "tic": 3743,
      "Ġpositive": 3744,
      "Ġdiagn": 3745,
      "erg": 3746,
      "Ġaddress": 3747,
      "Ġ22": 3748,
      "why": 3749,
      "Ġbroad": 3750,
      "Ġapproach": 3751,
      "Ġmine": 3752,
      "Ġsecret": 3753,
      "Ġrob": 3754,
      "Ġnews": 3755,
      "Ġlocated": 3756,
      "ĠJames": 3757,
      "Ġmultip": 3758,
      "Ġschools": 3759,
      "Ġsummer": 3760,
      "Ġwonderful": 3761,
      "ait": 3762,
      "ronic": 3763,
      "ĠScience": 3764,
      "ners": 3765,
      "Ġimage": 3766,
      "vention": 3767,
      "Ġbunny": 3768,
      "pose": 3769,
      "Some": 3770,
      "Ġservices": 3771,
      "Ġspir": 3772,
      "Ġesc": 3773,
      "Ġsus": 3774,
      "alian": 3775,
      "org": 3776,
      "oop": 3777,
      "Ġglass": 3778,
      "Ġ2018": 3779,
      "ashington": 3780,
      "ĠDaddy": 3781,
      "Ġmist": 3782,
      "Ġwebsite": 3783,
      "Ġnearly": 3784,
      "Ġpolitician": 3785,
      "Ġsurprised": 3786,
      "Ġsymb": 3787,
      "Ġgreater": 3788,
      "Ġ2016": 3789,
      "ĠUnion": 3790,
      "Ġexcept": 3791,
      "ech": 3792,
      "Ġvillage": 3793,
      "Ġ2015": 3794,
      "Ġappeared": 3795,
      "Ġfruit": 3796,
      "Ġinteresting": 3797,
      "Ġoffice": 3798,
      "ests": 3799,
      "Ġtight": 3800,
      "Ġmoving": 3801,
      "Ġblock": 3802,
      "ipped": 3803,
      "Ġindividuals": 3804,
      "Ġpupp": 3805,
      "arp": 3806,
      "Ġ2019": 3807,
      "Ġcentral": 3808,
      "Ġ40": 3809,
      "Ġpaint": 3810,
      "Ġsimply": 3811,
      "Ġdear": 3812,
      "Ġarms": 3813,
      "Ġencour": 3814,
      "Ġ/": 3815,
      "Ġadm": 3816,
      "fered": 3817,
      "Ġwid": 3818,
      "rogen": 3819,
      "ĠLou": 3820,
      "Ġforward": 3821,
      "LO": 3822,
      "Ġslowly": 3823,
      "pro": 3824,
      "Ġinternational": 3825,
      "icians": 3826,
      "Ġmachine": 3827,
      "water": 3828,
      "Ġwel": 3829,
      "based": 3830,
      "Ġrare": 3831,
      "iot": 3832,
      "Ġboard": 3833,
      "Ġnames": 3834,
      "iable": 3835,
      "ĠOther": 3836,
      "Ġwhose": 3837,
      "vey": 3838,
      "Ġweeks": 3839,
      "----": 3840,
      "ĠTheir": 3841,
      "Ġgirls": 3842,
      "Ġstandard": 3843,
      "ounter": 3844,
      "His": 3845,
      "Ġdifference": 3846,
      "Ġcolon": 3847,
      "Ġresponse": 3848,
      "arian": 3849,
      "Ġnose": 3850,
      "Ġ190": 3851,
      "Ġdefin": 3852,
      "Ġlines": 3853,
      "ago": 3854,
      "isions": 3855,
      "za": 3856,
      "Ġmanagement": 3857,
      "zer": 3858,
      "Ġ1998": 3859,
      "Ġsources": 3860,
      "Ġcarried": 3861,
      "Ġseems": 3862,
      "Ġrap": 3863,
      "known": 3864,
      "ords": 3865,
      "hi": 3866,
      "Ġlat": 3867,
      "ĠPre": 3868,
      "rian": 3869,
      "33": 3870,
      "John": 3871,
      "Ġtiss": 3872,
      "Ġrecent": 3873,
      "Ġplanet": 3874,
      "ĠSpace": 3875,
      "Ġmeas": 3876,
      "Ġparticularly": 3877,
      "ustr": 3878,
      "ube": 3879,
      "Ġclosed": 3880,
      "ouncil": 3881,
      "Ġpink": 3882,
      "igg": 3883,
      "70": 3884,
      "Ġbath": 3885,
      "90": 3886,
      "eddy": 3887,
      "Ġdrive": 3888,
      "ĠParty": 3889,
      "Ġjud": 3890,
      "Ġmonth": 3891,
      "oyal": 3892,
      "Ġvict": 3893,
      "iverse": 3894,
      "ctors": 3895,
      "ĠReg": 3896,
      "ĠBel": 3897,
      "Ġsick": 3898,
      "ĠPaul": 3899,
      "lin": 3900,
      "Ġthus": 3901,
      "Ġstation": 3902,
      "olf": 3903,
      "rm": 3904,
      "Who": 3905,
      "Ġfaster": 3906,
      "Ġstorm": 3907,
      "ÃŃ": 3908,
      "ĠJust": 3909,
      "resh": 3910,
      "ocal": 3911,
      "Ġsuff": 3912,
      "izes": 3913,
      "Ġmethods": 3914,
      "Ġenvironmental": 3915,
      "Ġcit": 3916,
      "Ġmarried": 3917,
      "Ġcorrect": 3918,
      "ĠArt": 3919,
      "Ġcompos": 3920,
      "Ġgod": 3921,
      "Ġreturned": 3922,
      "Ġimmedi": 3923,
      "Ġbroke": 3924,
      "ĠSpe": 3925,
      "Ġhungry": 3926,
      "off": 3927,
      "Ġhabit": 3928,
      "ĠEveryone": 3929,
      "ket": 3930,
      "ida": 3931,
      "aging": 3932,
      "Ġir": 3933,
      "Ġpresident": 3934,
      "Ġassess": 3935,
      "196": 3936,
      "Ġyummy": 3937,
      "house": 3938,
      "ĠApp": 3939,
      "oday": 3940,
      "ĠDay": 3941,
      "ĠChristian": 3942,
      "Ġcelebr": 3943,
      "gypt": 3944,
      "ĠVal": 3945,
      "Ġlength": 3946,
      "ĠYour": 3947,
      "Ġhuge": 3948,
      "Ġhill": 3949,
      "Ġtherefore": 3950,
      "Ġbasic": 3951,
      "Ġkid": 3952,
      "Ġhaven": 3953,
      "Ġanalysis": 3954,
      "Ġconcent": 3955,
      "inct": 3956,
      "ĠHen": 3957,
      "Ġsurround": 3958,
      "Ġec": 3959,
      "ropri": 3960,
      "Ġhous": 3961,
      "Wow": 3962,
      "Ġinvestig": 3963,
      "Ġfigure": 3964,
      "Ġocean": 3965,
      "ĠNot": 3966,
      "tered": 3967,
      "Ġpan": 3968,
      "Ġstress": 3969,
      "Ġstrange": 3970,
      "ulf": 3971,
      "Ġpsych": 3972,
      "Ġturns": 3973,
      "Ġreported": 3974,
      "Ġspend": 3975,
      "ĠWashington": 3976,
      "Ġweak": 3977,
      "Ġmeant": 3978,
      "Ġselect": 3979,
      "Ġswing": 3980,
      "ĠResearch": 3981,
      "Ġnetwork": 3982,
      "ields": 3983,
      "een": 3984,
      "overy": 3985,
      "aisy": 3986,
      "Ġble": 3987,
      "Ġcream": 3988,
      "Ġruns": 3989,
      "hest": 3990,
      "Ġremembered": 3991,
      "edy": 3992,
      "ĠChinese": 3993,
      "Ġuseful": 3994,
      "ĠSpanish": 3995,
      "uzz": 3996,
      "Ġprofessional": 3997,
      "Ġenjoyed": 3998,
      "Ġconsist": 3999,
      "45": 4000,
      "Ġfilm": 4001,
      "ek": 4002,
      "Ġmid": 4003,
      "Ġchance": 4004,
      "Ġlake": 4005,
      "Ġfriendly": 4006,
      "antic": 4007,
      "rast": 4008,
      "Ġdemon": 4009,
      "ria": 4010,
      "Ġsyn": 4011,
      "Ġcro": 4012,
      "Ġolder": 4013,
      "imin": 4014,
      "Ġanyone": 4015,
      "35": 4016,
      "Ġhelping": 4017,
      "ĠCH": 4018,
      "Ġnucle": 4019,
      "Ġwaste": 4020,
      "ocol": 4021,
      "ounced": 4022,
      "Are": 4023,
      "Ġride": 4024,
      "back": 4025,
      "Ġtools": 4026,
      "atur": 4027,
      "Ġwished": 4028,
      "Ġshared": 4029,
      "Ġforces": 4030,
      "ĠCor": 4031,
      "isms": 4032,
      "Ġminute": 4033,
      "Ġdance": 4034,
      "Ġtarget": 4035,
      "Ġcomplet": 4036,
      "Ġidentify": 4037,
      "Ġreview": 4038,
      "Ġinse": 4039,
      "ym": 4040,
      "Ġcontinue": 4041,
      "osaur": 4042,
      "pa": 4043,
      "Ġclub": 4044,
      "Ġfinal": 4045,
      "ĠPeople": 4046,
      "Ġassist": 4047,
      "Ġcompon": 4048,
      "Ġreve": 4049,
      "AL": 4050,
      "pire": 4051,
      "Ġprograms": 4052,
      "fta": 4053,
      "bles": 4054,
      "Ġstuff": 4055,
      "ĠCong": 4056,
      "Ġcenter": 4057,
      "ĠDavid": 4058,
      "ari": 4059,
      "rael": 4060,
      "Ġintro": 4061,
      "Here": 4062,
      "Ġsugar": 4063,
      "ĠSu": 4064,
      "vest": 4065,
      "Good": 4066,
      "IC": 4067,
      "ĠMore": 4068,
      "Ġacid": 4069,
      "Ġguess": 4070,
      "Ġindustry": 4071,
      "mosp": 4072,
      "did": 4073,
      "Ġgiving": 4074,
      "Ġplaced": 4075,
      "Ġneck": 4076,
      "ĠHistory": 4077,
      "rain": 4078,
      "Ġseat": 4079,
      "Ġmis": 4080,
      "ael": 4081,
      "ometimes": 4082,
      "ties": 4083,
      "Ġum": 4084,
      "lymp": 4085,
      "ĠHigh": 4086,
      "atin": 4087,
      "Ġsolar": 4088,
      "Ġphone": 4089,
      "ribution": 4090,
      "Ġdirectly": 4091,
      "ĠOh": 4092,
      "ĠChild": 4093,
      "Ġleading": 4094,
      "ension": 4095,
      "OU": 4096,
      "Ġrub": 4097,
      "Ġforget": 4098,
      "Ġpowerful": 4099,
      "Ġring": 4100,
      "Ġdaddy": 4101,
      "Ġlack": 4102,
      "Ġdetect": 4103,
      "SIS": 4104,
      "ĠSim": 4105,
      "Ġprimary": 4106,
      "Ġactive": 4107,
      "istan": 4108,
      "lection": 4109,
      "Ġsitting": 4110,
      "lor": 4111,
      "Ġemb": 4112,
      "Ġsett": 4113,
      "ĠPeter": 4114,
      "Ġfif": 4115,
      "âĢ¦": 4116,
      "entle": 4117,
      "Ġradio": 4118,
      "ĠCons": 4119,
      "oma": 4120,
      "odies": 4121,
      "ĠTur": 4122,
      "ĠDuring": 4123,
      "Ġpush": 4124,
      "With": 4125,
      "ams": 4126,
      "Ġtrack": 4127,
      "reme": 4128,
      "Ġbigger": 4129,
      "Ġmatch": 4130,
      "ĠRober": 4131,
      "Ġmaybe": 4132,
      "Ġfear": 4133,
      "Ġwinter": 4134,
      "IT": 4135,
      "Ġelements": 4136,
      "Ġsupply": 4137,
      "Ġeventually": 4138,
      "Ġtoward": 4139,
      "ĠIm": 4140,
      "Ġbottom": 4141,
      "Ġcoin": 4142,
      "Ġbot": 4143,
      "Ġscientific": 4144,
      "Ġbecomes": 4145,
      "Ġx": 4146,
      "ĠIts": 4147,
      "Ġteach": 4148,
      "Ġchurch": 4149,
      "Ġeggs": 4150,
      "eles": 4151,
      "Ġtraining": 4152,
      "ato": 4153,
      "ĠDan": 4154,
      "Ġobjects": 4155,
      "Ġsevere": 4156,
      "Ġpolice": 4157,
      "ĠJer": 4158,
      "llo": 4159,
      "Ġaud": 4160,
      "ampions": 4161,
      "Ġgoal": 4162,
      "ĠGeneral": 4163,
      "craft": 4164,
      "These": 4165,
      "oves": 4166,
      "Ġtrouble": 4167,
      "Ġwaved": 4168,
      "Ġkiss": 4169,
      "ĠBro": 4170,
      "Ġflying": 4171,
      "ste": 4172,
      "uits": 4173,
      "Ġinfection": 4174,
      "ya": 4175,
      "Ġunique": 4176,
      "Ġcaught": 4177,
      "Ġmemory": 4178,
      "Ġnation": 4179,
      "Ġeth": 4180,
      "ĠHere": 4181,
      "ims": 4182,
      "Ġrout": 4183,
      "Ġsave": 4184,
      "Ġemot": 4185,
      "uries": 4186,
      "ien": 4187,
      "Ġbutterfly": 4188,
      "Ġhafta": 4189,
      "Ġtrade": 4190,
      "ĠCap": 4191,
      "Ġtraditional": 4192,
      "Ġdeveloping": 4193,
      "Ġdistrict": 4194,
      "ĠQue": 4195,
      "Ġhun": 4196,
      "Ġweather": 4197,
      "eration": 4198,
      "Ġwest": 4199,
      "Ġrich": 4200,
      "Ġbeach": 4201,
      "Ġpow": 4202,
      "Ġfeatures": 4203,
      "ĠEgypt": 4204,
      "Ġestim": 4205,
      "Ġteachers": 4206,
      "irection": 4207,
      "Ġversion": 4208,
      "Ġcust": 4209,
      "ĊĊ": 4210,
      "Ġfoods": 4211,
      "Ġmention": 4212,
      "uman": 4213,
      "Ġvacc": 4214,
      "imum": 4215,
      "Ġder": 4216,
      "Anna": 4217,
      "Ġhospital": 4218,
      "Go": 4219,
      "yond": 4220,
      "Ġnovel": 4221,
      "ĠInstitute": 4222,
      "acing": 4223,
      "36": 4224,
      "wise": 4225,
      "ĠHel": 4226,
      "ĠOlymp": 4227,
      "Ġserved": 4228,
      "38": 4229,
      "Ġquant": 4230,
      "Ġonline": 4231,
      "Ġdescribed": 4232,
      "Ġstra": 4233,
      "Ġissue": 4234,
      "ensus": 4235,
      "37": 4236,
      "Ġmunicip": 4237,
      "Ġmetal": 4238,
      "la": 4239,
      "icated": 4240,
      "Ġsmart": 4241,
      "elly": 4242,
      "ĠAlthough": 4243,
      "GMA": 4244,
      "ING": 4245,
      "Ġaren": 4246,
      "Ġbacteria": 4247,
      "Ġlion": 4248,
      "Ġcontains": 4249,
      "Ġdiseases": 4250,
      "ĠCenter": 4251,
      "edia": 4252,
      "Ġrepe": 4253,
      "Ã¼": 4254,
      "ĠEven": 4255,
      "eding": 4256,
      "Ġavoid": 4257,
      "Ġbelieved": 4258,
      "Ġlad": 4259,
      "Ġdestroy": 4260,
      "Ġcovered": 4261,
      "raid": 4262,
      "Ġduck": 4263,
      "ux": 4264,
      "Ġextra": 4265,
      "Ġstayed": 4266,
      "ternet": 4267,
      "Ġinstr": 4268,
      "Ġfemale": 4269,
      "ĠFrank": 4270,
      "Ġhide": 4271,
      "ĠMark": 4272,
      "ĠMart": 4273,
      "cond": 4274,
      "Ġdom": 4275,
      "ĠRich": 4276,
      "Ġonto": 4277,
      "Ġscreen": 4278,
      "People": 4279,
      "mit": 4280,
      "48": 4281,
      "Ġsequ": 4282,
      "Ġprogress": 4283,
      "omp": 4284,
      "ĠDis": 4285,
      "ses": 4286,
      "Ġreflect": 4287,
      "Ġmultiple": 4288,
      "ĠBilly": 4289,
      "ĠMummy": 4290,
      "ening": 4291,
      "Ġamazing": 4292,
      "Ġjoy": 4293,
      "ĠWhy": 4294,
      "Ġrapid": 4295,
      "vin": 4296,
      "cast": 4297,
      "Ġrules": 4298,
      "kin": 4299,
      "Ġsituation": 4300,
      "ĠVir": 4301,
      "ĠAnt": 4302,
      "Ġperhaps": 4303,
      "ucks": 4304,
      "riend": 4305,
      "Ġactor": 4306,
      "Ġtiny": 4307,
      "ously": 4308,
      "rot": 4309,
      "Ġbasket": 4310,
      "Ġperformance": 4311,
      "Ġtherap": 4312,
      "ĠChurch": 4313,
      "ĠKingdom": 4314,
      "yp": 4315,
      "Ġallows": 4316,
      "book": 4317,
      "Ġmoon": 4318,
      "tery": 4319,
      "Ġcomfort": 4320,
      "Ã¶": 4321,
      "ĠSer": 4322,
      "ĠAir": 4323,
      "iest": 4324,
      "Ġremain": 4325,
      "Ġholding": 4326,
      "Ġdetermine": 4327,
      "ĠPress": 4328,
      "Ġattract": 4329,
      "nic": 4330,
      "oming": 4331,
      "Ġspent": 4332,
      "ufact": 4333,
      "istry": 4334,
      "Ġstyle": 4335,
      "itis": 4336,
      "Ġrat": 4337,
      "ellig": 4338,
      "Ġelectr": 4339,
      "99": 4340,
      "Ġphil": 4341,
      "Ġexplained": 4342,
      "RA": 4343,
      "othing": 4344,
      "Ġplays": 4345,
      "Ġmedia": 4346,
      "band": 4347,
      "Ġgentle": 4348,
      "Ġteaching": 4349,
      "Ġcities": 4350,
      "aser": 4351,
      "Ġeast": 4352,
      "ĠGreek": 4353,
      "Ġagricult": 4354,
      "Ġleaders": 4355,
      "Ġextend": 4356,
      "Ġdirected": 4357,
      "Maybe": 4358,
      "RE": 4359,
      "Ġple": 4360,
      "Ġoh": 4361,
      "Ġconstit": 4362,
      "Ġmer": 4363,
      "with": 4364,
      "Ġsection": 4365,
      "Ġblow": 4366,
      "orders": 4367,
      "then": 4368,
      "Ġstream": 4369,
      "Ġhopped": 4370,
      "ĠAre": 4371,
      "Ġhar": 4372,
      "pite": 4373,
      "Ġtransport": 4374,
      "Ġbread": 4375,
      "Ġdeb": 4376,
      "Ġ*": 4377,
      "Ġmanufact": 4378,
      "bre": 4379,
      "ĠAmericans": 4380,
      "ĠPort": 4381,
      "igr": 4382,
      "ĠIsrael": 4383,
      "Ġstreet": 4384,
      "Ġatmosp": 4385,
      "Ġrocks": 4386,
      "Ġiron": 4387,
      "Ġadminist": 4388,
      "Ġbee": 4389,
      "Ġhighly": 4390,
      "Ġearlier": 4391,
      "47": 4392,
      "aped": 4393,
      "Ġshr": 4394,
      "Ġoffer": 4395,
      "Ġfer": 4396,
      "Ġshoes": 4397,
      "gn": 4398,
      "Ġsilly": 4399,
      "berg": 4400,
      "Or": 4401,
      "ager": 4402,
      "Ġpurpose": 4403,
      "roduction": 4404,
      "Ġscale": 4405,
      "ĠBer": 4406,
      "olar": 4407,
      "ĠTHE": 4408,
      "Ġfamilies": 4409,
      "Ġdecre": 4410,
      "Ġrule": 4411,
      "idents": 4412,
      "ĠAssoci": 4413,
      "ĠTex": 4414,
      "irrel": 4415,
      "Ġpulled": 4416,
      "ĠDem": 4417,
      "Ġpal": 4418,
      "Ġcounty": 4419,
      "ament": 4420,
      "Ġmap": 4421,
      "Ġaccident": 4422,
      "ibr": 4423,
      "Ġnegative": 4424,
      "Ġmoral": 4425,
      "wood": 4426,
      "Ġdie": 4427,
      "Ġstone": 4428,
      "Ġthick": 4429,
      "Ġlegs": 4430,
      "Ġtea": 4431,
      "Ġtransl": 4432,
      "umn": 4433,
      "ij": 4434,
      "ocked": 4435,
      "Ġinfluence": 4436,
      "ingu": 4437,
      "ĠCour": 4438,
      "ĠMor": 4439,
      "iar": 4440,
      "aled": 4441,
      "Ġhappily": 4442,
      "Ġsafety": 4443,
      "Ġow": 4444,
      "Ġdirection": 4445,
      "Ġessential": 4446,
      "Ġjournal": 4447,
      "Ġcourt": 4448,
      "Ġdemand": 4449,
      "Ġachieve": 4450,
      "gal": 4451,
      "Ġafraid": 4452,
      "Se": 4453,
      "ĠMount": 4454,
      "ancing": 4455,
      "Ġarmy": 4456,
      "Ġplate": 4457,
      "illa": 4458,
      "Ġsinger": 4459,
      "hemat": 4460,
      "Ġlaws": 4461,
      "omy": 4462,
      "Ġhappens": 4463,
      "Ġhour": 4464,
      "year": 4465,
      "ygen": 4466,
      "Ġfresh": 4467,
      "Ġmountain": 4468,
      "Ġshell": 4469,
      "Ġseek": 4470,
      "gl": 4471,
      "nes": 4472,
      "Ġorigin": 4473,
      "Ġsuddenly": 4474,
      "ĠRet": 4475,
      "CD": 4476,
      "oviet": 4477,
      "Ġaltern": 4478,
      "Ġdate": 4479,
      "Ġpolicy": 4480,
      "Ġ186": 4481,
      "Ġowner": 4482,
      "IV": 4483,
      "Ġprinci": 4484,
      "ĠIS": 4485,
      "ĠLila": 4486,
      "hab": 4487,
      "Ġ--": 4488,
      "Ġspring": 4489,
      "Ġchoose": 4490,
      "Ġdelicious": 4491,
      "Ġcastle": 4492,
      "Ġbirthday": 4493,
      "Ġ2021": 4494,
      "Ġshel": 4495,
      "Ġoccup": 4496,
      "Of": 4497,
      "Ġcompared": 4498,
      "Ġstraight": 4499,
      "Ġimages": 4500,
      "Ġexpos": 4501,
      "Ġnote": 4502,
      "39": 4503,
      "Ġdocument": 4504,
      "ĠTommy": 4505,
      "Ġorange": 4506,
      "Ġoppos": 4507,
      "aren": 4508,
      "ributed": 4509,
      "fully": 4510,
      "nded": 4511,
      "Ġintegr": 4512,
      "Ġtur": 4513,
      "Ġoccurs": 4514,
      "aker": 4515,
      "ĠMic": 4516,
      "imal": 4517,
      "Ġcommonly": 4518,
      "Ġtrust": 4519,
      "ĠAlex": 4520,
      "46": 4521,
      "ience": 4522,
      "Ġreligious": 4523,
      "alled": 4524,
      "Ġblank": 4525,
      "Ġcow": 4526,
      "Ġinn": 4527,
      "Ġthinks": 4528,
      "Ġexec": 4529,
      "Ġcitiz": 4530,
      "which": 4531,
      "ĠAsia": 4532,
      "burg": 4533,
      "Ġcommunities": 4534,
      "aling": 4535,
      "ville": 4536,
      "Ġbone": 4537,
      "mar": 4538,
      "By": 4539,
      "78": 4540,
      "Sam": 4541,
      "ulate": 4542,
      "Ġload": 4543,
      "Ġletters": 4544,
      "Ġobtain": 4545,
      "Ġsteps": 4546,
      "Le": 4547,
      "Ġ1990": 4548,
      "odes": 4549,
      "ĠSum": 4550,
      "iques": 4551,
      "ĠMat": 4552,
      "Ġsquare": 4553,
      "Ġund": 4554,
      "Ġstuck": 4555,
      "ĠPri": 4556,
      "Ġcompletely": 4557,
      "Ġwoods": 4558,
      "Ġsust": 4559,
      "Ġexpected": 4560,
      "Ġfort": 4561,
      "ĠArab": 4562,
      "Ġlabor": 4563,
      "ĠWestern": 4564,
      "Ġexcl": 4565,
      "ĠAnn": 4566,
      "rang": 4567,
      "ĠItalian": 4568,
      "Ġjuice": 4569,
      "EL": 4570,
      "abetes": 4571,
      "Ġtool": 4572,
      "Ġgrew": 4573,
      "mas": 4574,
      "Ġremains": 4575,
      "isl": 4576,
      "ropriate": 4577,
      "Ġrise": 4578,
      "west": 4579,
      "ĠDepartment": 4580,
      "Ġlimited": 4581,
      "bert": 4582,
      "Ġputs": 4583,
      "ĠMad": 4584,
      "ishing": 4585,
      "Ġdaily": 4586,
      "iency": 4587,
      "Ġsir": 4588,
      "Ġmostly": 4589,
      "ĠLaw": 4590,
      "Every": 4591,
      "Ġeleph": 4592,
      "Ġprivate": 4593,
      "Ġnoises": 4594,
      "Ġdemonstr": 4595,
      "Ġcommune": 4596,
      "text": 4597,
      "ĠDNA": 4598,
      "Ġmental": 4599,
      "van": 4600,
      "Ġmotor": 4601,
      "Ġcommer": 4602,
      "Ġcommand": 4603,
      "ĠMal": 4604,
      "Ġresponsible": 4605,
      "Ġbattle": 4606,
      "Ġ:": 4607,
      "ĠEduc": 4608,
      "Ġbenefits": 4609,
      "asion": 4610,
      "Ġquar": 4611,
      "Ġsquirrel": 4612,
      "ĠOf": 4613,
      "ourney": 4614,
      "Ġur": 4615,
      "Ġfuel": 4616,
      "Ġchick": 4617,
      "Ġcalcul": 4618,
      "Ġaccur": 4619,
      "Ġinterp": 4620,
      "Ġcray": 4621,
      "rees": 4622,
      "Ġindependent": 4623,
      "ĠArch": 4624,
      "ĠIsland": 4625,
      "55": 4626,
      "Ġadop": 4627,
      "alities": 4628,
      "Ġnest": 4629,
      "ka": 4630,
      "Uh": 4631,
      "ĠSun": 4632,
      "Ġtwenty": 4633,
      "Ġveh": 4634,
      "ned": 4635,
      "Ġnorthern": 4636,
      "ĠChe": 4637,
      "ipe": 4638,
      "Ġjoined": 4639,
      "Ġden": 4640,
      "Ġdropped": 4641,
      "Ġadditional": 4642,
      "Ġdecision": 4643,
      "34": 4644,
      "Ġrot": 4645,
      "Ġlanguages": 4646,
      "Ġtypically": 4647,
      "Jack": 4648,
      "ulated": 4649,
      "ĠBecause": 4650,
      "ĠJes": 4651,
      "ĠTexas": 4652,
      "ala": 4653,
      "Ġworth": 4654,
      "Ġterrit": 4655,
      "Timmy": 4656,
      "ĠKore": 4657,
      "ĠLouis": 4658,
      "Ġanx": 4659,
      "Ġ#": 4660,
      "ĠHenry": 4661,
      "Ġwarn": 4662,
      "ena": 4663,
      "Ġrail": 4664,
      "Ġprison": 4665,
      "Ġsouthern": 4666,
      "lam": 4667,
      "Ġstood": 4668,
      "ĠSince": 4669,
      "ĠMil": 4670,
      "utch": 4671,
      "Ġshoot": 4672,
      "encies": 4673,
      "semb": 4674,
      "OK": 4675,
      "Ġvalues": 4676,
      "Ġprotein": 4677,
      "ĠBo": 4678,
      "Ġbeyond": 4679,
      "ĠKitt": 4680,
      "Ġstanding": 4681,
      "ĠĠĠĠ": 4682,
      "ĠRussian": 4683,
      "Ġ60": 4684,
      "Rel": 4685,
      "Ġcode": 4686,
      "ares": 4687,
      "Ġbite": 4688,
      "Ġvit": 4689,
      "ĠRobert": 4690,
      "term": 4691,
      "Ġadults": 4692,
      "Ġexplain": 4693,
      "razil": 4694,
      "ĠSur": 4695,
      "ctic": 4696,
      "Ġstrugg": 4697,
      "ĠDist": 4698,
      "Ġtower": 4699,
      "Ġign": 4700,
      "mission": 4701,
      "osy": 4702,
      "Ġexactly": 4703,
      "Ġcart": 4704,
      "Ã³": 4705,
      "Ġbank": 4706,
      "Ġcurrently": 4707,
      "Ġwave": 4708,
      "ĠCath": 4709,
      "ĠSally": 4710,
      "AP": 4711,
      "ĠBC": 4712,
      "Ġcookies": 4713,
      "box": 4714,
      "Pl": 4715,
      "ĠMexico": 4716,
      "ero": 4717,
      "ĠTV": 4718,
      "astern": 4719,
      "Mm": 4720,
      "\"|": 4721,
      "Ġpock": 4722,
      "Ġpromised": 4723,
      "Ġcompanies": 4724,
      "Ġinstit": 4725,
      "Ġdogs": 4726,
      "ĠAmy": 4727,
      "cious": 4728,
      "ĠCommun": 4729,
      "Ġnative": 4730,
      "ED": 4731,
      "ĠMinister": 4732,
      "Ġleader": 4733,
      "ĠCat": 4734,
      "Ġcontroll": 4735,
      "life": 4736,
      "Ġmedicine": 4737,
      "Ġensure": 4738,
      "Ġcritical": 4739,
      "Ġaspect": 4740,
      "Ġ+": 4741,
      "Ġimplement": 4742,
      "watch": 4743,
      "Ġgenetic": 4744,
      "Ġhoney": 4745,
      "Ġwriter": 4746,
      "good": 4747,
      "Ġprotection": 4748,
      "Ġregions": 4749,
      "Ġasks": 4750,
      "osop": 4751,
      "ipment": 4752,
      "Ġautom": 4753,
      "Ġbought": 4754,
      "olid": 4755,
      "ĠFranc": 4756,
      "Ġconver": 4757,
      "acters": 4758,
      "ĠGreen": 4759,
      "Ġbul": 4760,
      "ĠCongress": 4761,
      "Right": 4762,
      "Ġconfl": 4763,
      "ĠBat": 4764,
      "____": 4765,
      "ios": 4766,
      "Ġtruth": 4767,
      "ĠSen": 4768,
      "Ġcamer": 4769,
      "ĠColle": 4770,
      "Ġmur": 4771,
      "Ġestablishments": 4772,
      "Ġhttp": 4773,
      "ishes": 4774,
      "Ġhighest": 4775,
      "Ġimportance": 4776,
      "apers": 4777,
      "Ġdisplay": 4778,
      "Ġproperty": 4779,
      "ĠServ": 4780,
      "Ġnearby": 4781,
      "olit": 4782,
      "Ġshop": 4783,
      "Ġtaught": 4784,
      "lying": 4785,
      "enth": 4786,
      "Ġseparate": 4787,
      "Ġbound": 4788,
      "Ġpoly": 4789,
      "Ġexercise": 4790,
      "ĠPet": 4791,
      "ĠMag": 4792,
      "Ġdetermined": 4793,
      "Ġplane": 4794,
      "Ġexamples": 4795,
      "phone": 4796,
      "ï¿½ï¿½": 4797,
      "ĠMont": 4798,
      "Ġleaving": 4799,
      "ado": 4800,
      "Ġstarting": 4801,
      "AC": 4802,
      "ĠTrans": 4803,
      "Ġtests": 4804,
      "Ġsch": 4805,
      "Ġfighting": 4806,
      "hens": 4807,
      "Ad": 4808,
      "ĠJen": 4809,
      "Ġoxygen": 4810,
      "49": 4811,
      "Ġaffected": 4812,
      "Ġconvers": 4813,
      "estic": 4814,
      "ding": 4815,
      "Ġsites": 4816,
      "Ġproced": 4817,
      "ĠItaly": 4818,
      "Ġwatching": 4819,
      "ĠCharles": 4820,
      "Ġmale": 4821,
      "rupt": 4822,
      "Pro": 4823,
      "Ġbranch": 4824,
      "pat": 4825,
      "Ġspirit": 4826,
      "Ġenter": 4827,
      "ĠMod": 4828,
      "ĠBill": 4829,
      "Ġprec": 4830,
      "ĠBrown": 4831,
      "Â°": 4832,
      "Ġextrem": 4833,
      "Ġbehavi": 4834,
      "Ġprocesses": 4835,
      "Ġsolution": 4836,
      "izations": 4837,
      "ola": 4838,
      "Ġcapac": 4839,
      "ĠCouncil": 4840,
      "ĠMaybe": 4841,
      "itect": 4842,
      "issions": 4843,
      "ĠEach": 4844,
      "75": 4845,
      "Ġhyp": 4846,
      "alks": 4847,
      "While": 4848,
      "Ġevolution": 4849,
      "Ġfox": 4850,
      "ĠCr": 4851,
      "Ġcrying": 4852,
      "Ġconstruction": 4853,
      "Ġintroduced": 4854,
      "ĠDaisy": 4855,
      "ĠCur": 4856,
      "ells": 4857,
      "Ġjourney": 4858,
      "Your": 4859,
      "Ġeverywhere": 4860,
      "Ġhang": 4861,
      "ogen": 4862,
      "Ġult": 4863,
      "ĠÃ": 4864,
      "apped": 4865,
      "Ġwaiting": 4866,
      "Ġmission": 4867,
      "Ġlunch": 4868,
      "oted": 4869,
      "ĠAccording": 4870,
      "ibly": 4871,
      "Did": 4872,
      "Ġadvant": 4873,
      "Ġrespond": 4874,
      "roup": 4875,
      "Ġstructures": 4876,
      "Ġequal": 4877,
      "Ġconstant": 4878,
      "ĠBi": 4879,
      "ĠArmy": 4880,
      "Ġknows": 4881,
      "teen": 4882,
      "ĠSoviet": 4883,
      "volution": 4884,
      "Ġsight": 4885,
      "Ġcultural": 4886,
      "Ġscary": 4887,
      "ki": 4888,
      "Ġnumer": 4889,
      "ĠSal": 4890,
      "ĠMars": 4891,
      "ĠAtl": 4892,
      "load": 4893,
      "Ġlose": 4894,
      "Tr": 4895,
      "Ġtro": 4896,
      "ĠNE": 4897,
      "Ġcreating": 4898,
      "Ġunit": 4899,
      "ĠCHI": 4900,
      "Ġsinging": 4901,
      "Ġshot": 4902,
      "ĠCarol": 4903,
      "ĠBook": 4904,
      "atever": 4905,
      "Ġsharp": 4906,
      "riage": 4907,
      "Ġflag": 4908,
      "uke": 4909,
      "Ġworkers": 4910,
      "Ġrelease": 4911,
      "ĠSwed": 4912,
      "Ġsuit": 4913,
      "ls": 4914,
      "Ġnine": 4915,
      "Ġlistened": 4916,
      "uild": 4917,
      "Ġwings": 4918,
      "ampionship": 4919,
      "Ġdoub": 4920,
      "coh": 4921,
      "Ġbusy": 4922,
      "ĠFlor": 4923,
      "Ġcollection": 4924,
      "Ġstret": 4925,
      "Ġsigns": 4926,
      "ensity": 4927,
      "win": 4928,
      "Ġimpl": 4929,
      "Ġworried": 4930,
      "andy": 4931,
      "ella": 4932,
      "ĠBet": 4933,
      "Ġapprox": 4934,
      "Ġbalance": 4935,
      "Comm": 4936,
      "Ġmad": 4937,
      "Ġshapes": 4938,
      "Ġmyself": 4939,
      "Ġcharge": 4940,
      "Me": 4941,
      "Ġlocation": 4942,
      "Ġban": 4943,
      "Ġtissue": 4944,
      "part": 4945,
      "Ġcred": 4946,
      "inet": 4947,
      "Ġmut": 4948,
      "ĠVirgin": 4949,
      "Ġhus": 4950,
      "Ġdevices": 4951,
      "iring": 4952,
      "Ġacqu": 4953,
      "Ġeval": 4954,
      "ointed": 4955,
      "amples": 4956,
      "Ġsoftware": 4957,
      "Ġwaves": 4958,
      "field": 4959,
      "ĠWater": 4960,
      "Ġequipment": 4961,
      "Ġcontract": 4962,
      "Ġtill": 4963,
      "ĠSystem": 4964,
      "ĠWhite": 4965,
      "BRO": 4966,
      "aign": 4967,
      "Ġreasons": 4968,
      "Ġclimbed": 4969,
      "ologist": 4970,
      "Ġprior": 4971,
      "ĠVol": 4972,
      "anda": 4973,
      "Ġrough": 4974,
      "Ġdriver": 4975,
      "under": 4976,
      "ĠCup": 4977,
      "Ġthr": 4978,
      "aud": 4979,
      "Ġdevice": 4980,
      "Ġmel": 4981,
      "ada": 4982,
      "Ġdegree": 4983,
      "Ġstrength": 4984,
      "See": 4985,
      "Ġdirty": 4986,
      "Ġreceive": 4987,
      "Please": 4988,
      "Ġkinds": 4989,
      "Ġliqu": 4990,
      "Ġbuildings": 4991,
      "ropical": 4992,
      "ading": 4993,
      "Ġconsequ": 4994,
      "âĢ¢": 4995,
      "liam": 4996,
      "oons": 4997,
      "iven": 4998,
      "Ġgrandma": 4999,
      "UN": 5000,
      "Ġslight": 5001,
      "Ne": 5002,
      "ĠCanadian": 5003,
      "Ġpredict": 5004,
      "rowspan": 5005,
      "Ġwaited": 5006,
      "wered": 5007,
      "Ġmeeting": 5008,
      "Ġhors": 5009,
      "edom": 5010,
      "Ġfill": 5011,
      "Ġperformed": 5012,
      "Mummy": 5013,
      "Ġcorner": 5014,
      "wers": 5015,
      "och": 5016,
      "ii": 5017,
      "ooth": 5018,
      "ums": 5019,
      "Ġpun": 5020,
      "Ġanaly": 5021,
      "BC": 5022,
      "Ġcharacters": 5023,
      "because": 5024,
      "Ġchoice": 5025,
      "Ġpresence": 5026,
      "Ġtun": 5027,
      "Ġwhom": 5028,
      "eper": 5029,
      "Because": 5030,
      "ĠAssociation": 5031,
      "Ġimmediately": 5032,
      "Ġflood": 5033,
      "Ġfeature": 5034,
      "Ġpuzz": 5035,
      "95": 5036,
      "ĠBenny": 5037,
      "Ġelement": 5038,
      "writ": 5039,
      "Ġobserved": 5040,
      "Ġpuppy": 5041,
      "Ġ1980": 5042,
      "Ġbillion": 5043,
      "opping": 5044,
      "Ġ31": 5045,
      "Ġpatterns": 5046,
      "ĠCollege": 5047,
      "195": 5048,
      "Ġ2022": 5049,
      "rieved": 5050,
      "ĠAward": 5051,
      "ĠSl": 5052,
      "ancial": 5053,
      "Ġrequires": 5054,
      "Ġcommunication": 5055,
      "Ġmeat": 5056,
      "Ġstrateg": 5057,
      "Ġspark": 5058,
      "Ġbasis": 5059,
      "Ġcustom": 5060,
      "Ġteddy": 5061,
      "Ġfeels": 5062,
      "Ġexpand": 5063,
      "Ġchalleng": 5064,
      "Ġplastic": 5065,
      "Ġlibr": 5066,
      "ĠSmith": 5067,
      "nam": 5068,
      "ias": 5069,
      "Ġcontinu": 5070,
      "Ġefforts": 5071,
      "Hi": 5072,
      ");": 5073,
      "Ġappears": 5074,
      "98": 5075,
      "Ġmyster": 5076,
      "wide": 5077,
      "ĠMac": 5078,
      "Ġlic": 5079,
      "Ġmodels": 5080,
      "idden": 5081,
      "liament": 5082,
      "Ġcru": 5083,
      "Ġ1997": 5084,
      "Ġwelcome": 5085,
      "ĠSociety": 5086,
      "met": 5087,
      "Ġtells": 5088,
      "Ġenem": 5089,
      "Ġapple": 5090,
      "Ġthrew": 5091,
      "sey": 5092,
      "Ġsettle": 5093,
      "âĮ": 5094,
      "32": 5095,
      "Ġdat": 5096,
      "ĠSpain": 5097,
      "Ġ188": 5098,
      "ĠFred": 5099,
      "Ġbridge": 5100,
      "Ġweb": 5101,
      "Ġleaf": 5102,
      "Ġbottle": 5103,
      "Ġtechniques": 5104,
      "ĠJewish": 5105,
      "bour": 5106,
      "Ġvari": 5107,
      "ship": 5108,
      "ĠCentral": 5109,
      "ĠEmpire": 5110,
      "fess": 5111,
      "Ġstarts": 5112,
      "Ġfile": 5113,
      "Ġfinding": 5114,
      "ĠLear": 5115,
      "Ġspeech": 5116,
      "Ġvess": 5117,
      "Ġmajority": 5118,
      "ĠAcadem": 5119,
      "76": 5120,
      "ĠChic": 5121,
      "Ġstudied": 5122,
      "ĠMet": 5123,
      "Ġshut": 5124,
      "ements": 5125,
      "Ġsmiles": 5126,
      "Ġthin": 5127,
      "Ġdifferences": 5128,
      "31": 5129,
      "ĠIr": 5130,
      "Ġreduc": 5131,
      "ads": 5132,
      "ĠBay": 5133,
      "Ġsoldiers": 5134,
      "Ġabsor": 5135,
      "va": 5136,
      "Ġspin": 5137,
      "Ġcateg": 5138,
      "Ġbodies": 5139,
      "44": 5140,
      "Ġactress": 5141,
      "entially": 5142,
      "Ġbelief": 5143,
      "arrow": 5144,
      "ĠInter": 5145,
      "Ġdirector": 5146,
      "ffe": 5147,
      "aid": 5148,
      "Ġcheese": 5149,
      "Ġrecently": 5150,
      "Ġfederal": 5151,
      "ribute": 5152,
      "Ġearn": 5153,
      "Ġfounded": 5154,
      "Ġlink": 5155,
      "Ġframe": 5156,
      "apter": 5157,
      "Ġgar": 5158,
      "asp": 5159,
      "Ġcouple": 5160,
      "ocratic": 5161,
      "stood": 5162,
      "Ġclassroom": 5163,
      "Ġappropriate": 5164,
      "ĠEll": 5165,
      "Ġtim": 5166,
      "Ġfields": 5167,
      "Sure": 5168,
      "Ġfixed": 5169,
      "ona": 5170,
      "ĠLord": 5171,
      "Ġintellig": 5172,
      "ĠBrazil": 5173,
      "Ġanswered": 5174,
      "urban": 5175,
      "Ġbike": 5176,
      "onic": 5177,
      "Ġattend": 5178,
      "ĠMass": 5179,
      "Ġinform": 5180,
      "Ġvisual": 5181,
      "Ġeffort": 5182,
      "Ġapplied": 5183,
      "Ġpushed": 5184,
      "ĠRob": 5185,
      "Ġnotice": 5186,
      "nel": 5187,
      "Ġpp": 5188,
      "ĠAlso": 5189,
      "Ġsecurity": 5190,
      "ĠUK": 5191,
      "ĠOver": 5192,
      "Ġgrown": 5193,
      "olved": 5194,
      "Ġtomorrow": 5195,
      "oration": 5196,
      "Ġtask": 5197,
      "Ġdiam": 5198,
      "Ġopportunity": 5199,
      "Ġbuck": 5200,
      "US": 5201,
      "Ġmir": 5202,
      "Ġhouses": 5203,
      "Ġdyn": 5204,
      "Ġmainly": 5205,
      "Ġexpress": 5206,
      "Ġpromise": 5207,
      "ĠInst": 5208,
      "Ġapplications": 5209,
      "Ġfarmer": 5210,
      "Ġtitle": 5211,
      "Ġlegal": 5212,
      "Ġillness": 5213,
      "yd": 5214,
      "ĠHall": 5215,
      "ota": 5216,
      "96": 5217,
      "Ġtransfer": 5218,
      "Ġ...": 5219,
      "iments": 5220,
      "ĠBritain": 5221,
      "Ġhistorical": 5222,
      "Ġmax": 5223,
      "Ġraised": 5224,
      "Ġ1996": 5225,
      "ĠAustralian": 5226,
      "Ġ80": 5227,
      "Ġrecorded": 5228,
      "ĠMuse": 5229,
      "enge": 5230,
      "equ": 5231,
      "ĠBudd": 5232,
      "ĠRec": 5233,
      "Ġfunctions": 5234,
      "hered": 5235,
      "Ġmonster": 5236,
      "Ġended": 5237,
      "ĠUnder": 5238,
      "Ġexposure": 5239,
      "Ġbecoming": 5240,
      "iled": 5241,
      "ĠTechn": 5242,
      "Dad": 5243,
      "Ġtour": 5244,
      "Ġlovely": 5245,
      "Ġrates": 5246,
      "ss": 5247,
      "Ġdrug": 5248,
      "Ġproperties": 5249,
      "ĠParis": 5250,
      "ĠSea": 5251,
      "ĠIll": 5252,
      "Ġdrugs": 5253,
      "Ġfellow": 5254,
      "Ġfinger": 5255,
      "ĠBas": 5256,
      "TEA": 5257,
      "Ġanti": 5258,
      "Ġsac": 5259,
      "Ġremained": 5260,
      "igen": 5261,
      "ologies": 5262,
      "RI": 5263,
      "ĠGood": 5264,
      "ĠCourt": 5265,
      "obile": 5266,
      "Ġeconomy": 5267,
      "Ġthousand": 5268,
      "Ġmaster": 5269,
      "Sara": 5270,
      "avy": 5271,
      "Ġlung": 5272,
      "âĢĿ.": 5273,
      "Ġatmosphere": 5274,
      "Ġastron": 5275,
      "ET": 5276,
      "Ġfinish": 5277,
      "Ġahead": 5278,
      "Ġshowing": 5279,
      "cont": 5280,
      "Ġforeign": 5281,
      "Ġsuggested": 5282,
      "Ġ1960": 5283,
      "Ġdust": 5284,
      "orial": 5285,
      "Ġmonkey": 5286,
      "uffy": 5287,
      "ittee": 5288,
      "cope": 5289,
      "Ġidentified": 5290,
      "Ġputting": 5291,
      "Ġapplication": 5292,
      "spe": 5293,
      "ĠMichael": 5294,
      "Ġtick": 5295,
      "Ġsubs": 5296,
      "uate": 5297,
      "Ġrelatively": 5298,
      "ection": 5299,
      "unes": 5300,
      "cop": 5301,
      "Ġthousands": 5302,
      "Ġtreated": 5303,
      "Ġstring": 5304,
      "umber": 5305,
      "Ġbowl": 5306,
      "Ġwalls": 5307,
      "Ġcos": 5308,
      "Ġfailure": 5309,
      "lim": 5310,
      "ĠSant": 5311,
      "Ġtrip": 5312,
      "rey": 5313,
      "olk": 5314,
      "Ġtape": 5315,
      "erate": 5316,
      "Ġtemperatures": 5317,
      "Ġreduced": 5318,
      "ĠLatin": 5319,
      "Ġdrawing": 5320,
      "Ġwestern": 5321,
      "Ġpray": 5322,
      "ĠProv": 5323,
      "Ġholds": 5324,
      "Ġballoon": 5325,
      "Ġfully": 5326,
      "new": 5327,
      "Ġseeds": 5328,
      "fast": 5329,
      "Ġspect": 5330,
      "Ġserve": 5331,
      "Ġconstruct": 5332,
      "ĠJournal": 5333,
      "Ġbab": 5334,
      "ĠSou": 5335,
      "Ġbug": 5336,
      "het": 5337,
      "Ġing": 5338,
      "ĠScott": 5339,
      "gery": 5340,
      "adow": 5341,
      "Ġorganization": 5342,
      "Ġ1970": 5343,
      "ston": 5344,
      "acific": 5345,
      "Ġstatus": 5346,
      "ashed": 5347,
      "Ġmessage": 5348,
      "Bl": 5349,
      "iox": 5350,
      "Ġoffered": 5351,
      "Ġmagic": 5352,
      "ologists": 5353,
      "stitution": 5354,
      "Ġben": 5355,
      "History": 5356,
      "New": 5357,
      "friend": 5358,
      "Ġpocket": 5359,
      "ga": 5360,
      "ĠOld": 5361,
      "Ġcoat": 5362,
      "Ġdiabetes": 5363,
      "peror": 5364,
      "change": 5365,
      "ĠWil": 5366,
      "Get": 5367,
      "Ġinstruct": 5368,
      "Ġeasier": 5369,
      "aked": 5370,
      "Ġdisorder": 5371,
      "ĠSee": 5372,
      "night": 5373,
      "Ġdrop": 5374,
      "Ġlit": 5375,
      "inc": 5376,
      "Ġ1995": 5377,
      "Ġhusband": 5378,
      "ĠJose": 5379,
      "arent": 5380,
      "ĠRussia": 5381,
      "ĠLin": 5382,
      "Ġsuppl": 5383,
      "ĠMes": 5384,
      "Ġgotta": 5385,
      "ateful": 5386,
      "oices": 5387,
      "cohol": 5388,
      "Ġremoved": 5389,
      "isher": 5390,
      "ĠLake": 5391,
      "bow": 5392,
      "Ġtesting": 5393,
      "Ġbreath": 5394,
      "Ġswimming": 5395,
      "Ġtherapy": 5396,
      "Ġcitizens": 5397,
      "Ġneighbor": 5398,
      "Ġclin": 5399,
      "iance": 5400,
      "Ġupper": 5401,
      "Ġpregn": 5402,
      "Ġinterested": 5403,
      "ĠEducation": 5404,
      "Ġcandy": 5405,
      "Ġpaid": 5406,
      "Ġimmune": 5407,
      "cular": 5408,
      "Ġcircle": 5409,
      "hey": 5410,
      "ĠJesus": 5411,
      "Ġacadem": 5412,
      "ett": 5413,
      "Ġantib": 5414,
      "ĠAD": 5415,
      "ĠKh": 5416,
      "Ġhelpful": 5417,
      "resp": 5418,
      "Ġresistance": 5419,
      "ĠTwo": 5420,
      "Ġcab": 5421,
      "Ġdragon": 5422,
      "Ġactions": 5423,
      "ouds": 5424,
      "Ġfoss": 5425,
      "works": 5426,
      "ogether": 5427,
      "Ġdivided": 5428,
      "ini": 5429,
      "Ġtooth": 5430,
      "Ġsilver": 5431,
      "Ġtox": 5432,
      "Ġmathemat": 5433,
      "Ġhoped": 5434,
      "Ġcolour": 5435,
      "Ġgoals": 5436,
      "Ġcosts": 5437,
      "pty": 5438,
      "ĠGold": 5439,
      "ita": 5440,
      "Ġru": 5441,
      "ĠFlorida": 5442,
      "ĠLittle": 5443,
      "oses": 5444,
      "Ġelection": 5445,
      "Ġprice": 5446,
      "char": 5447,
      "Ġnutri": 5448,
      "gu": 5449,
      "Related": 5450,
      "Ġoverall": 5451,
      "Ġsymbol": 5452,
      "Ġchief": 5453,
      "Ġremind": 5454,
      "ĠFore": 5455,
      "Ġsustain": 5456,
      "Ġincreases": 5457,
      "Ġpurple": 5458,
      "ansas": 5459,
      "Ġedge": 5460,
      "ĠDi": 5461,
      "Ġradiation": 5462,
      "Ġweap": 5463,
      "Ġvan": 5464,
      "Ġreb": 5465,
      "Ġvia": 5466,
      "orpor": 5467,
      "Ġreferred": 5468,
      "roke": 5469,
      "Ġgiant": 5470,
      "Ġepis": 5471,
      "Ġelephant": 5472,
      "verse": 5473,
      "Con": 5474,
      "ani": 5475,
      "Ġlie": 5476,
      "Ġflo": 5477,
      "ĠChicago": 5478,
      "Ġcompar": 5479,
      "rome": 5480,
      "ĠDiv": 5481,
      "Ġdigital": 5482,
      "Ġstaff": 5483,
      "Ġgraph": 5484,
      "Ġtaste": 5485,
      "Ġbegins": 5486,
      "Ġtele": 5487,
      "ancer": 5488,
      "Ġconnected": 5489,
      "Mov": 5490,
      "Gr": 5491,
      "ĠCatholic": 5492,
      "UR": 5493,
      "ĠJul": 5494,
      "Ġextremely": 5495,
      "Ġpil": 5496,
      "Ġmeasures": 5497,
      "Ġsuc": 5498,
      "ĠAv": 5499,
      "Ġlin": 5500,
      "Ġunderstood": 5501,
      "Ġbackground": 5502,
      "aths": 5503,
      "Ġvegetables": 5504,
      "Ġhearing": 5505,
      "ĠRetrieved": 5506,
      "Ġpump": 5507,
      "Ġmail": 5508,
      "'.": 5509,
      "Ġpoet": 5510,
      "agement": 5511,
      "Ind": 5512,
      "Ġyard": 5513,
      "ĠMuseum": 5514,
      "Ġinvent": 5515,
      "Ġmotion": 5516,
      "Ġprincess": 5517,
      "Ġplans": 5518,
      "leg": 5519,
      "Ġemerg": 5520,
      "MCH": 5521,
      "ĠDevelop": 5522,
      "bits": 5523,
      "itar": 5524,
      "ĠAN": 5525,
      "Ġsalt": 5526,
      "nds": 5527,
      "mark": 5528,
      "annel": 5529,
      "Ġdefined": 5530,
      "Ġmanaged": 5531,
      "Ġassign": 5532,
      "Ġphilosop": 5533,
      "Ġarchitect": 5534,
      "den": 5535,
      "Ġcounter": 5536,
      "Ġwealth": 5537,
      "ĠBur": 5538,
      "Ġprojects": 5539,
      "Ġsupposed": 5540,
      "Ġdomin": 5541,
      "ĠAut": 5542,
      "ĠToday": 5543,
      "Ġkil": 5544,
      "Ġdiscover": 5545,
      "ez": 5546,
      "ocolate": 5547,
      "Ġexperiment": 5548,
      "Eng": 5549,
      "Ġwidely": 5550,
      "Ġsides": 5551,
      "Ġwheel": 5552,
      "Ġsitu": 5553,
      "Ġsheep": 5554,
      "Ġpool": 5555,
      "Ġcampaign": 5556,
      "Ġcamera": 5557,
      "ĠNAS": 5558,
      "Ġcausing": 5559,
      "Ġassum": 5560,
      "Ġproviding": 5561,
      "Ġforg": 5562,
      "ĠWomen": 5563,
      "Ġmuscle": 5564,
      "ĠSometimes": 5565,
      "Ġamazed": 5566,
      "Ã¤": 5567,
      "iller": 5568,
      "osh": 5569,
      "related": 5570,
      "Ġhero": 5571,
      "Ġreaction": 5572,
      "Ġsignal": 5573,
      "Ġunits": 5574,
      "Ge": 5575,
      "Ġnap": 5576,
      "Ġcoal": 5577,
      "Ġseed": 5578,
      "cut": 5579,
      "65": 5580,
      "ĠVirginia": 5581,
      "Ġgain": 5582,
      "ĠAdd": 5583,
      "Ġlimit": 5584,
      "Ġwearing": 5585,
      "Te": 5586,
      "Ġ70": 5587,
      "Ġvirt": 5588,
      "Ġhuh": 5589,
      "Ġcloud": 5590,
      "Ġflat": 5591,
      "ĠInt": 5592,
      "Ġstandards": 5593,
      "Max": 5594,
      "Ġapart": 5595,
      "Ġremove": 5596,
      "Ġ1994": 5597,
      "isters": 5598,
      "ĠRichard": 5599,
      "ano": 5600,
      "Ġnotes": 5601,
      "Ġtelling": 5602,
      "fish": 5603,
      "ĠCivil": 5604,
      "Ġpolic": 5605,
      "Ġcycle": 5606,
      "Ġdinosaur": 5607,
      "ooper": 5608,
      "Ġtalked": 5609,
      "Ġrow": 5610,
      "Ġfinancial": 5611,
      "Ġroot": 5612,
      "Ġupset": 5613,
      "Ġsexual": 5614,
      "ĠTer": 5615,
      "ĠFin": 5616,
      "ĠChristmas": 5617,
      "ĠDel": 5618,
      "Ġhorses": 5619,
      "have": 5620,
      "Ġexpensive": 5621,
      "ĠMa": 5622,
      "SS": 5623,
      "Ġgene": 5624,
      "Ġpointed": 5625,
      "uty": 5626,
      "ĠOur": 5627,
      "ĠGovernment": 5628,
      "ĠâĨ": 5629,
      "Ġstepped": 5630,
      "Ġelectricity": 5631,
      ".'": 5632,
      "Fr": 5633,
      "ache": 5634,
      "Ġpopulations": 5635,
      "Ġforced": 5636,
      "Ġpractices": 5637,
      "fall": 5638,
      "Ġ90": 5639,
      "Ġhom": 5640,
      "ockey": 5641,
      "CO": 5642,
      "Ġinstance": 5643,
      "Ġlon": 5644,
      "Ġdistinct": 5645,
      "AM": 5646,
      "Ġwash": 5647,
      "ographic": 5648,
      "Ġdrove": 5649,
      "Ġindustrial": 5650,
      "Ġrang": 5651,
      "Ġopin": 5652,
      "ĠScot": 5653,
      "Ġgal": 5654,
      "arl": 5655,
      "ĠIN": 5656,
      "Ġcolorful": 5657,
      "icate": 5658,
      "NAN": 5659,
      "Ġdegrees": 5660,
      "when": 5661,
      "Ġtreasure": 5662,
      "ĠĊĠĊĠĊĠĊ": 5663,
      "yard": 5664,
      "Ġbenefit": 5665,
      "Ġasking": 5666,
      "anguage": 5667,
      "Ġitems": 5668,
      "Ġbutton": 5669,
      "ĠWind": 5670,
      "Ġguy": 5671,
      "mitted": 5672,
      "anted": 5673,
      "Ġseeing": 5674,
      "Ġcertainly": 5675,
      "97": 5676,
      "Ġgrateful": 5677,
      "ĠHol": 5678,
      "ighter": 5679,
      "Ġlayer": 5680,
      "ession": 5681,
      "Ġnerv": 5682,
      "Ġminor": 5683,
      "Ġpresented": 5684,
      "Ġdiss": 5685,
      "Ġfactor": 5686,
      "med": 5687,
      "rim": 5688,
      "Ġcommercial": 5689,
      "iling": 5690,
      "Ab": 5691,
      "Ġexciting": 5692,
      "ĠPak": 5693,
      "ĠAcademy": 5694,
      "Ġsnake": 5695,
      "mic": 5696,
      "Ġapproximately": 5697,
      "Ġevening": 5698,
      "ĠPacific": 5699,
      "aria": 5700,
      "Ġmentioned": 5701,
      "ef": 5702,
      "Ġash": 5703,
      "Ġunknown": 5704,
      "Ġmixed": 5705,
      "Ġprovince": 5706,
      "ĠFe": 5707,
      "Ġannounced": 5708,
      "Ġvary": 5709,
      "Ġinsp": 5710,
      "omar": 5711,
      "Ã¨": 5712,
      "anches": 5713,
      "ĠBlue": 5714,
      "Ġparticles": 5715,
      "aimed": 5716,
      "rate": 5717,
      "ĠRoyal": 5718,
      "thank": 5719,
      "aks": 5720,
      "Ġnuclear": 5721,
      "Ġescape": 5722,
      "igation": 5723,
      "uable": 5724,
      "ĠSocial": 5725,
      "ĠMolly": 5726,
      "Ġindeed": 5727,
      "mes": 5728,
      "Ġfruits": 5729,
      "imens": 5730,
      "Ġfold": 5731,
      "phas": 5732,
      "ĠLee": 5733,
      "isa": 5734,
      "rad": 5735,
      "oving": 5736,
      "down": 5737,
      "Ġsolid": 5738,
      "Ġwhis": 5739,
      "Ġcopy": 5740,
      "Ġshore": 5741,
      "two": 5742,
      "Ġmunicipality": 5743,
      "Ġton": 5744,
      "oul": 5745,
      "Ġblanket": 5746,
      "ĠGeorg": 5747,
      "Ġdolls": 5748,
      "pring": 5749,
      "ĠFinally": 5750,
      "ĠClass": 5751,
      "Ġfairy": 5752,
      "Ġstim": 5753,
      "yer": 5754,
      "Ġclouds": 5755,
      "rence": 5756,
      "Ġaim": 5757,
      "Ġfaces": 5758,
      "Ġreligion": 5759,
      "igure": 5760,
      "orage": 5761,
      "Ġlegisl": 5762,
      "Ġcomponents": 5763,
      "Ġliterature": 5764,
      "car": 5765,
      "Ġcontext": 5766,
      "Ph": 5767,
      "ĠCome": 5768,
      "ĠThus": 5769,
      "ĠChildren": 5770,
      "Ġsports": 5771,
      "Ġcapacity": 5772,
      "ĠPlan": 5773,
      "Ġprint": 5774,
      "Ġrelie": 5775,
      "Ġ1992": 5776,
      "ĠVict": 5777,
      "Ġtwins": 5778,
      "Ġsmooth": 5779,
      "Ġguide": 5780,
      "rief": 5781,
      "Ġpurch": 5782,
      "uce": 5783,
      "Ġemissions": 5784,
      "Ġwise": 5785,
      "otes": 5786,
      "Ġdrama": 5787,
      "Ġhomes": 5788,
      "88": 5789,
      "Ġchanging": 5790,
      "Ġ1993": 5791,
      "Ġtradition": 5792,
      "asks": 5793,
      "Ġestimated": 5794,
      "Ġaged": 5795,
      "Ġsmell": 5796,
      "Ġarrang": 5797,
      "Äģ": 5798,
      "ĠPeak": 5799,
      "Ġparent": 5800,
      "ĠJews": 5801,
      "Ġrecords": 5802,
      "Ġdetails": 5803,
      "Ġeld": 5804,
      "ĠWeb": 5805,
      "ĠRem": 5806,
      "Ġdistribution": 5807,
      "Ġcontrast": 5808,
      "Ġexhib": 5809,
      "heast": 5810,
      "rible": 5811,
      "ĠSaint": 5812,
      "Ġnaught": 5813,
      "Ġcensus": 5814,
      "ĠUN": 5815,
      "reland": 5816,
      "alle": 5817,
      "Ġliquid": 5818,
      "Ġconfirm": 5819,
      "onia": 5820,
      "urther": 5821,
      "Ġnewsp": 5822,
      "Ġyours": 5823,
      "Ġunf": 5824,
      "Ġfence": 5825,
      "Ġsetting": 5826,
      "da": 5827,
      "Ġefficient": 5828,
      "iders": 5829,
      "Ġdriving": 5830,
      "Ġmagical": 5831,
      "77": 5832,
      "iform": 5833,
      "Ġcoffe": 5834,
      "tical": 5835,
      "ĠPalomar": 5836,
      "isation": 5837,
      "real": 5838,
      "Ġdescribe": 5839,
      "Ġax": 5840,
      "Ġsuggests": 5841,
      "Ġphen": 5842,
      "Ġdouble": 5843,
      "rich": 5844,
      "Ġcave": 5845,
      "Ġscr": 5846,
      "ĠTy": 5847,
      "force": 5848,
      "Ġbiggest": 5849,
      "ĠAnderson": 5850,
      "Ġexecut": 5851,
      "Ġgift": 5852,
      "FA": 5853,
      "unction": 5854,
      "Ġproperly": 5855,
      "Ġplanning": 5856,
      "Ġclosely": 5857,
      "Ġurban": 5858,
      "Ġprepared": 5859,
      "Ġwaters": 5860,
      "ĠOl": 5861,
      "ciences": 5862,
      "zen": 5863,
      "Ġlaughing": 5864,
      "43": 5865,
      "Ġgenes": 5866,
      "Finally": 5867,
      "Ġexpression": 5868,
      "Ġfeather": 5869,
      "Ġgeneration": 5870,
      "42": 5871,
      "Ġuser": 5872,
      "ĠĊĊ": 5873,
      "Ġmo": 5874,
      "osystem": 5875,
      "ĠSing": 5876,
      "Ġentered": 5877,
      "arf": 5878,
      "Ġnur": 5879,
      "Ġtroops": 5880,
      "LE": 5881,
      "Ġconflict": 5882,
      "Ġchest": 5883,
      "Ġroof": 5884,
      "Ġillustr": 5885,
      "ĠZeal": 5886,
      "ĠFre": 5887,
      "Ġdecide": 5888,
      "anes": 5889,
      "ĠRome": 5890,
      "Ġcollege": 5891,
      "Ġears": 5892,
      "ĠColumb": 5893,
      "cules": 5894,
      "Ġchart": 5895,
      "ĠYes": 5896,
      "amil": 5897,
      "ĠLife": 5898,
      "Ġvision": 5899,
      "flow": 5900,
      "Ġwhatever": 5901,
      "Ġasleep": 5902,
      "ua": 5903,
      "ava": 5904,
      "Ġvolcan": 5905,
      "Ġpill": 5906,
      "ĠDistrict": 5907,
      "Ġcoffee": 5908,
      "Ġlo": 5909,
      "ortunately": 5910,
      "Ġforever": 5911,
      "Ġreplaced": 5912,
      "Ġmissing": 5913,
      "Ġunus": 5914,
      "Ġoperation": 5915,
      "Ġactual": 5916,
      "ĠNASA": 5917,
      "Ġsell": 5918,
      "ĠDutch": 5919,
      "ossible": 5920,
      "Ġrose": 5921,
      "Ġaward": 5922,
      "ault": 5923,
      "oured": 5924,
      "Ġelected": 5925,
      "Ġvolume": 5926,
      "Ġpin": 5927,
      "Ġbreast": 5928,
      "Ġfrag": 5929,
      "ĠPhys": 5930,
      "rows": 5931,
      "Ġcreation": 5932,
      "ĠZealand": 5933,
      "Ġprefer": 5934,
      "ĠIreland": 5935,
      "was": 5936,
      "emic": 5937,
      "Ġsang": 5938,
      "ĠSecond": 5939,
      "Ġempty": 5940,
      "ĠMOT": 5941,
      "cel": 5942,
      "pet": 5943,
      "ĠOff": 5944,
      "Ġsmoke": 5945,
      "Ġdrinking": 5946,
      "ĠMiddle": 5947,
      "ĠUse": 5948,
      "ĠRel": 5949,
      "Ġdiscovery": 5950,
      "aven": 5951,
      "ulum": 5952,
      "porary": 5953,
      "Ġdelight": 5954,
      "Ġmath": 5955,
      "Ġfrequently": 5956,
      "ĠIslam": 5957,
      "inter": 5958,
      "lers": 5959,
      "Ġkeeping": 5960,
      "Ġpainting": 5961,
      "Ġpreviously": 5962,
      "Ġclearly": 5963,
      "ĠInternet": 5964,
      "ĠMer": 5965,
      "fficial": 5966,
      "Ġalcohol": 5967,
      "58": 5968,
      "idel": 5969,
      "Ġnit": 5970,
      "Ġadapt": 5971,
      "kins": 5972,
      "Ġobvious": 5973,
      "Ġnaughty": 5974,
      "Ġexploring": 5975,
      "Many": 5976,
      "Ġelev": 5977,
      "Ġmanner": 5978,
      "66": 5979,
      "Ġagree": 5980,
      "Ġunivers": 5981,
      "Ġcombination": 5982,
      "\")": 5983,
      "Ġpair": 5984,
      "Ġbub": 5985,
      "Ġoutput": 5986,
      "41": 5987,
      "Ġtries": 5988,
      "bi": 5989,
      "uan": 5990,
      "asty": 5991,
      "ĠWhere": 5992,
      "Ġbrush": 5993,
      "However": 5994,
      "Ġsupported": 5995,
      "ĠFound": 5996,
      "Ġren": 5997,
      "Ġwire": 5998,
      "reamed": 5999,
      "Ġenh": 6000,
      "Ġdisorders": 6001,
      "Ġprofessor": 6002,
      "Ġheight": 6003,
      "ĠJill": 6004,
      "Res": 6005,
      "ĠNorthern": 6006,
      "Ġnumerous": 6007,
      "Ġappearance": 6008,
      "Ġbond": 6009,
      "MAR": 6010,
      "ĠEr": 6011,
      "ĠCle": 6012,
      "Ġnervous": 6013,
      "Ġcenturies": 6014,
      "Ġ1991": 6015,
      "Ġrecognized": 6016,
      "Ġ()": 6017,
      "Ġorganized": 6018,
      "ĠJud": 6019,
      "ba": 6020,
      "iana": 6021,
      "Ġchocolate": 6022,
      "ora": 6023,
      "Ġguitar": 6024,
      "abilities": 6025,
      "roat": 6026,
      "place": 6027,
      "ĠProgram": 6028,
      "ĠLos": 6029,
      "ĠBoth": 6030,
      "Ġchicken": 6031,
      "TER": 6032,
      "Ġgreatest": 6033,
      "apping": 6034,
      "gie": 6035,
      "cest": 6036,
      "umin": 6037,
      "azine": 6038,
      "ĠEnd": 6039,
      "ĠOF": 6040,
      "Ġsucceed": 6041,
      "ĠHaw": 6042,
      "rehens": 6043,
      "Ġobserv": 6044,
      "ĠAp": 6045,
      "Ġmoves": 6046,
      "During": 6047,
      "Ġhappening": 6048,
      "Ġliber": 6049,
      "rier": 6050,
      "osen": 6051,
      "PA": 6052,
      "Ġdestroyed": 6053,
      "bal": 6054,
      "ashion": 6055,
      "Ġcalling": 6056,
      "aws": 6057,
      "ario": 6058,
      "ycl": 6059,
      "Ġcraw": 6060,
      "isp": 6061,
      "Ġcompleted": 6062,
      "hors": 6063,
      "aded": 6064,
      "ĠStudents": 6065,
      "name": 6066,
      "Ġfeelings": 6067,
      "Ġeducational": 6068,
      "Ġresulting": 6069,
      "Ġexperiences": 6070,
      "Ġsoup": 6071,
      "Ġformation": 6072,
      "Ġforth": 6073,
      "oung": 6074,
      "Ġcra": 6075,
      "ĠOcean": 6076,
      "Ġcharacteristics": 6077,
      "Ġfollows": 6078,
      "Ġguys": 6079,
      "Ġguard": 6080,
      "erman": 6081,
      "Ġhousehold": 6082,
      "Ġfaith": 6083,
      "ĠSub": 6084,
      "Ġexisting": 6085,
      "cher": 6086,
      "Ġbones": 6087,
      "ĠTH": 6088,
      "Ġtechnique": 6089,
      "Ġshook": 6090,
      "Ġorganic": 6091,
      "ees": 6092,
      "Most": 6093,
      "Ġships": 6094,
      "oz": 6095,
      "ĠHuman": 6096,
      "Movies": 6097,
      "ĠCam": 6098,
      "ĠRock": 6099,
      "Ġdepression": 6100,
      "Ġ(\"": 6101,
      "Ġmanage": 6102,
      "ĠCarolina": 6103,
      "Ġamb": 6104,
      "ĠOx": 6105,
      "Ġcreative": 6106,
      "Ġcontinues": 6107,
      "Ġsatis": 6108,
      "Ġoccurred": 6109,
      "Ġexcess": 6110,
      "Ġinternal": 6111,
      "ĠPakistan": 6112,
      "Ġrefers": 6113,
      "Ġbreakfast": 6114,
      "oto": 6115,
      "Ġtrib": 6116,
      "ĠMama": 6117,
      "Ġoriginally": 6118,
      "ĠBig": 6119,
      "obe": 6120,
      "sembly": 6121,
      "Ġsample": 6122,
      "Ġfindings": 6123,
      "ĠCompany": 6124,
      "noon": 6125,
      "fin": 6126,
      "ndrome": 6127,
      "Ġdecades": 6128,
      "Ġsandw": 6129,
      "king": 6130,
      "Ġbeat": 6131,
      "Ġspoke": 6132,
      "oli": 6133,
      "ĠCast": 6134,
      "Ġalg": 6135,
      "Ġreference": 6136,
      "Ġmud": 6137,
      "Ġhandle": 6138,
      "Ġfreedom": 6139,
      "ĠQueen": 6140,
      "ootball": 6141,
      "Ġnoted": 6142,
      "Ġ35": 6143,
      "Ġhall": 6144,
      "Ġbes": 6145,
      "Ġgather": 6146,
      "Ġfalls": 6147,
      "pen": 6148,
      "Ġbranches": 6149,
      "ĠOut": 6150,
      "Ġreports": 6151,
      "Ġsharing": 6152,
      "rum": 6153,
      "Ġrac": 6154,
      "stein": 6155,
      "Ġcrown": 6156,
      "Ġworse": 6157,
      "Ġmal": 6158,
      "respond": 6159,
      "ĠChampionship": 6160,
      "ĠGrandma": 6161,
      "oken": 6162,
      "Ġelectrical": 6163,
      "ĠSir": 6164,
      "Ġspoon": 6165,
      "aval": 6166,
      "Ġeastern": 6167,
      "Ġinhab": 6168,
      "Ġoperations": 6169,
      "Ġgrav": 6170,
      "ĠCharl": 6171,
      "Ġadvantage": 6172,
      "ception": 6173,
      "opl": 6174,
      "amily": 6175,
      "Ġtum": 6176,
      "DAD": 6177,
      "ĠCarl": 6178,
      "ĠProfess": 6179,
      "Ġdoubt": 6180,
      "Ġflight": 6181,
      "erves": 6182,
      "Ġaer": 6183,
      "Ġvaluable": 6184,
      "ĠSpacewatch": 6185,
      "reci": 6186,
      "ordin": 6187,
      "ĠElect": 6188,
      "arling": 6189,
      "omic": 6190,
      "ĠMel": 6191,
      "Ġtwice": 6192,
      "Ġcrow": 6193,
      "Ġplat": 6194,
      "Ġvent": 6195,
      "ĠNEAT": 6196,
      "Ġ?": 6197,
      "ĠPublic": 6198,
      "Ġcircum": 6199,
      "ĠMartin": 6200,
      "2000": 6201,
      "Ġlucky": 6202,
      "Ġcalm": 6203,
      "ĠConf": 6204,
      "does": 6205,
      "ĠSus": 6206,
      "nding": 6207,
      "Ġusers": 6208,
      "Ġuns": 6209,
      "ĠPers": 6210,
      "Ġclever": 6211,
      "ĠSuper": 6212,
      "Ġinfections": 6213,
      "Ġchain": 6214,
      "pir": 6215,
      "Ġteams": 6216,
      "Ġadvice": 6217,
      "oking": 6218,
      "state": 6219,
      "Ġcollected": 6220,
      "Ġinvolves": 6221,
      "itzer": 6222,
      "Ġmamm": 6223,
      "eless": 6224,
      "osing": 6225,
      "Bob": 6226,
      "Ġcalls": 6227,
      "people": 6228,
      "ĠWell": 6229,
      "Ġleads": 6230,
      "Ġchallenge": 6231,
      "alog": 6232,
      "iated": 6233,
      "Ġexposed": 6234,
      "Ġfertil": 6235,
      "Ġlandsc": 6236,
      "Ġalive": 6237,
      "Ġpup": 6238,
      "2010": 6239,
      "Ġinitial": 6240,
      "road": 6241,
      "care": 6242,
      "Ġknowing": 6243,
      "Ġmeasured": 6244,
      "Ġmulti": 6245,
      "ĠThank": 6246,
      "Ġemphas": 6247,
      "Ġ1950": 6248,
      "aine": 6249,
      "ped": 6250,
      "ĠEnvironment": 6251,
      "li": 6252,
      "According": 6253,
      "Ġsurgery": 6254,
      "Ġdecor": 6255,
      "Ġgate": 6256,
      "isted": 6257,
      "Ġreality": 6258,
      "Ġartist": 6259,
      "Ġapply": 6260,
      "Our": 6261,
      "bur": 6262,
      "Ġstrategies": 6263,
      "ĠRad": 6264,
      "Ġjar": 6265,
      "rawn": 6266,
      "Although": 6267,
      "Ġalt": 6268,
      "Ġofficer": 6269,
      "Ġcards": 6270,
      "ĠTor": 6271,
      "Ġforests": 6272,
      "add": 6273,
      "Ġtopic": 6274,
      "pes": 6275,
      "Ġmos": 6276,
      "Ġtouched": 6277,
      "Ġdeclared": 6278,
      "Ġisol": 6279,
      "Ġconnection": 6280,
      "Ġcollabor": 6281,
      "Ġclasses": 6282,
      "Ġlands": 6283,
      "ĠJoseph": 6284,
      "cientists": 6285,
      "Ġadvanced": 6286,
      "ĠVictor": 6287,
      "56": 6288,
      "ima": 6289,
      "Ġopening": 6290,
      "ĠOrgan": 6291,
      "Ġknee": 6292,
      "Ġfract": 6293,
      "ellent": 6294,
      "Ġlying": 6295,
      "umps": 6296,
      "ĠLand": 6297,
      "Ġzoo": 6298,
      "Ġfro": 6299,
      "Ġyouth": 6300,
      "ĠUp": 6301,
      "Ġdepending": 6302,
      "Ġlonely": 6303,
      "athered": 6304,
      "Ġflex": 6305,
      "Ġnarrow": 6306,
      "Ġdisp": 6307,
      "Ġaccepted": 6308,
      "Ġscen": 6309,
      "Ġcore": 6310,
      "Ġstatistics": 6311,
      "going": 6312,
      "Ġwondered": 6313,
      "Ġrope": 6314,
      "Ġcrack": 6315,
      "100": 6316,
      "heim": 6317,
      "Ġnone": 6318,
      "Ġalternative": 6319,
      "Ġelimin": 6320,
      "Ġinput": 6321,
      "vis": 6322,
      "ĠService": 6323,
      "gent": 6324,
      "Ġconducted": 6325,
      "ĠSummer": 6326,
      "ĠNews": 6327,
      "Ġrobot": 6328,
      "Ġamounts": 6329,
      "ĠMem": 6330,
      "Ġfrequency": 6331,
      "Ġsaved": 6332,
      "Ġeffic": 6333,
      "Ġmonit": 6334,
      "tes": 6335,
      "ĠSouthern": 6336,
      "rition": 6337,
      "ĠLike": 6338,
      "may": 6339,
      "Ġuniverse": 6340,
      "Ġspeaking": 6341,
      "Ġmuse": 6342,
      "Ġsigned": 6343,
      "Ġconcer": 6344,
      "Ġaware": 6345,
      "ĠGree": 6346,
      "ĠPrin": 6347,
      "Ġstatement": 6348,
      "Ġpollution": 6349,
      "Ġsen": 6350,
      "ban": 6351,
      "Ġresource": 6352,
      "Ġphase": 6353,
      "Mr": 6354,
      "Ġafternoon": 6355,
      "cript": 6356,
      "Ġsolve": 6357,
      "yr": 6358,
      "Ġconsists": 6359,
      "Ġincome": 6360,
      "berry": 6361,
      "Ġbench": 6362,
      "ĠStr": 6363,
      "uls": 6364,
      "Ġopportunities": 6365,
      "ĠAbout": 6366,
      "Ġneut": 6367,
      "Ġarrest": 6368,
      "Ġsignificantly": 6369,
      "Ġloves": 6370,
      "iano": 6371,
      "standing": 6372,
      "Ġcrops": 6373,
      "Ġcloth": 6374,
      "iro": 6375,
      "ching": 6376,
      "English": 6377,
      "pre": 6378,
      "Ġfingers": 6379,
      "Ġcarrying": 6380,
      "gle": 6381,
      "Ġfourth": 6382,
      "Ġlibrary": 6383,
      "orter": 6384,
      "Ġdial": 6385,
      "Ġoffers": 6386,
      "ognitive": 6387,
      "tering": 6388,
      "pective": 6389,
      "omach": 6390,
      "Ġhiding": 6391,
      "itz": 6392,
      "igan": 6393,
      "Ġstorage": 6394,
      "Ġfirm": 6395,
      "ĠAnother": 6396,
      "Ġclock": 6397,
      "Ġsomewhere": 6398,
      "Ġproposed": 6399,
      "Ġbush": 6400,
      "Ġadventures": 6401,
      "Ġdepos": 6402,
      "Ġslightly": 6403,
      "Ġnormally": 6404,
      "Ġwhist": 6405,
      "Ġod": 6406,
      "Ġaircraft": 6407,
      "Ġhabitat": 6408,
      "elve": 6409,
      "ĠStreet": 6410,
      "cription": 6411,
      "Ġdecisions": 6412,
      "uts": 6413,
      "Ġancest": 6414,
      "ĠPen": 6415,
      "vert": 6416,
      "wing": 6417,
      "ĠJimmy": 6418,
      "Ġ1989": 6419,
      "lig": 6420,
      "Ġhidden": 6421,
      "Ġthanks": 6422,
      "Ġded": 6423,
      "Ġviolence": 6424,
      "icked": 6425,
      "ĠDen": 6426,
      "Ġtherm": 6427,
      "ca": 6428,
      "ĠDirect": 6429,
      "ĠMot": 6430,
      "Ġmarriage": 6431,
      "oops": 6432,
      "Ġvitamin": 6433,
      "ifying": 6434,
      "Ġsle": 6435,
      "ĠPrime": 6436,
      "Ġrapidly": 6437,
      "Ġengineering": 6438,
      "Ġconcl": 6439,
      "Ġconsumption": 6440,
      "Ġapparent": 6441,
      "Ġgrade": 6442,
      "ĠConstitution": 6443,
      "Ġmi": 6444,
      "ĠTherefore": 6445,
      "Ġorganizations": 6446,
      "ĠWho": 6447,
      "antly": 6448,
      "ĠIII": 6449,
      "Ġecosystem": 6450,
      "57": 6451,
      "Ġdiscussion": 6452,
      "ĠAngeles": 6453,
      "Ġsomebody": 6454,
      "CT": 6455,
      "Ġinsects": 6456,
      "First": 6457,
      "appy": 6458,
      "Ġdrew": 6459,
      "Ġgray": 6460,
      "PAT": 6461,
      "Ġeager": 6462,
      "ĠCaptain": 6463,
      "Ste": 6464,
      "inent": 6465,
      "Ġcandid": 6466,
      "ĠTw": 6467,
      "ĠEmma": 6468,
      "Ġswings": 6469,
      "Ġinjury": 6470,
      "ĠDou": 6471,
      "Ġcolumn": 6472,
      "ĠGal": 6473,
      "Ġabsol": 6474,
      "Ġrepeated": 6475,
      "Ġowl": 6476,
      "Ġhonest": 6477,
      "Ġuniversity": 6478,
      "Ġmusical": 6479,
      "LA": 6480,
      "Ġopposite": 6481,
      "ĠSund": 6482,
      "ura": 6483,
      "Ġmuscles": 6484,
      "Com": 6485,
      "ĠIndians": 6486,
      "Ġcombined": 6487,
      "PS": 6488,
      "Ġsed": 6489,
      "93": 6490,
      "Ġhello": 6491,
      "ĠPenn": 6492,
      "ĠPlay": 6493,
      "Ġcomment": 6494,
      "ript": 6495,
      "Ġya": 6496,
      "Ġconv": 6497,
      "Ġinvolve": 6498,
      "Ġfib": 6499,
      "Ġbell": 6500,
      "Ġham": 6501,
      "Ġbud": 6502,
      "ĠWild": 6503,
      "Ah": 6504,
      "Ġpounds": 6505,
      "Ġarticles": 6506,
      "Ġstones": 6507,
      "86": 6508,
      "Ġmissed": 6509,
      "orph": 6510,
      "angle": 6511,
      "Ġrecommended": 6512,
      "comm": 6513,
      "ĠWood": 6514,
      "Ġperman": 6515,
      "ĠFort": 6516,
      "child": 6517,
      "rd": 6518,
      "Ġcorrespond": 6519,
      "Ġturning": 6520,
      "Ġrhy": 6521,
      "Ġcute": 6522,
      "Ġconfused": 6523,
      "Ġaspects": 6524,
      "Ġroots": 6525,
      "shall": 6526,
      "Ġutil": 6527,
      "orough": 6528,
      "Ġconcepts": 6529,
      "arly": 6530,
      "ĠTem": 6531,
      "uses": 6532,
      "igration": 6533,
      "Ġorbit": 6534,
      "Ġincorpor": 6535,
      "ĠDevelopment": 6536,
      "ounce": 6537,
      "Ġsque": 6538,
      "Ġanyway": 6539,
      "Ġholid": 6540,
      "ested": 6541,
      "Gen": 6542,
      "ĠCamp": 6543,
      "Ġlinked": 6544,
      "Ġgoods": 6545,
      "Ġlights": 6546,
      "Ġterritory": 6547,
      "Ġconservation": 6548,
      "ĠFil": 6549,
      "ois": 6550,
      "ĠWork": 6551,
      "Ġislands": 6552,
      "ĠAtlantic": 6553,
      "Ġborder": 6554,
      "ih": 6555,
      "Have": 6556,
      "92": 6557,
      "pan": 6558,
      "Ġmm": 6559,
      "uhhuh": 6560,
      "Ġparties": 6561,
      "Ġsatell": 6562,
      "Ġrevolution": 6563,
      "BN": 6564,
      "ONE": 6565,
      "ĠPlease": 6566,
      "ods": 6567,
      "Ġcomfortable": 6568,
      "Qu": 6569,
      "ĊĠ": 6570,
      "Ġintended": 6571,
      "Ġunusual": 6572,
      "]?": 6573,
      "Ġfarmers": 6574,
      "poses": 6575,
      "Ġfought": 6576,
      "Ġcrime": 6577,
      "Ġselected": 6578,
      "lets": 6579,
      "ĠProject": 6580,
      "uz": 6581,
      "Ġpuzzle": 6582,
      "Ġyounger": 6583,
      "Ġgall": 6584,
      "Ġuncle": 6585,
      "oys": 6586,
      "ĠSecret": 6587,
      "ĠInde": 6588,
      "Ġvote": 6589,
      "Ġwit": 6590,
      "urt": 6591,
      "Ġtow": 6592,
      "ĠRevolution": 6593,
      "rid": 6594,
      "Ġrivers": 6595,
      "âĢĿ,": 6596,
      "Ġprimarily": 6597,
      "akers": 6598,
      "throp": 6599,
      "Ġsufficient": 6600,
      "Ġsleeping": 6601,
      "Ġswitch": 6602,
      "andom": 6603,
      "Ġsne": 6604,
      "Ġfamiliar": 6605,
      "Ġvisible": 6606,
      "Ġcryst": 6607,
      "aturally": 6608,
      "itage": 6609,
      "bing": 6610,
      "SA": 6611,
      "Ġattacks": 6612,
      "Ġlaid": 6613,
      "SI": 6614,
      "olph": 6615,
      "ĠUs": 6616,
      "ipping": 6617,
      "Ġordered": 6618,
      "Mum": 6619,
      "Ġjack": 6620,
      "gi": 6621,
      "ĠPan": 6622,
      "Ġ)": 6623,
      "Ġchronic": 6624,
      "Ġmolecules": 6625,
      "Ġsurrounding": 6626,
      "Ġaid": 6627,
      "ĠBre": 6628,
      "abeth": 6629,
      "long": 6630,
      "stairs": 6631,
      "Ġanywhere": 6632,
      "Ġchallenges": 6633,
      "ĠBattle": 6634,
      "ette": 6635,
      "thes": 6636,
      "rin": 6637,
      "gas": 6638,
      "ĠGroup": 6639,
      "Ġstraw": 6640,
      "ĠStand": 6641,
      "Ġfluid": 6642,
      "cipl": 6643,
      "crib": 6644,
      "Ġextreme": 6645,
      "Ġvoc": 6646,
      "ĠHind": 6647,
      "Ġotherwise": 6648,
      "riculum": 6649,
      "ĠLong": 6650,
      "Ġcontrolled": 6651,
      "Ġrelationships": 6652,
      "ĠNet": 6653,
      "Ġmountains": 6654,
      "Ġdefinition": 6655,
      "Ġdeliver": 6656,
      "ĠPost": 6657,
      "atically": 6658,
      "Ġenemy": 6659,
      "ĠTO": 6660,
      "Ġproteins": 6661,
      "Ġauthority": 6662,
      "ĠOb": 6663,
      "Dr": 6664,
      "ĠBest": 6665,
      "ĠList": 6666,
      "ĠTreat": 6667,
      "Ġpile": 6668,
      "ĠHarry": 6669,
      "Ġjoint": 6670,
      "Ġcentre": 6671,
      "Ġannual": 6672,
      "06": 6673,
      "areness": 6674,
      "gely": 6675,
      "ĠTest": 6676,
      "arks": 6677,
      "shine": 6678,
      "Ġtract": 6679,
      "Ġimpossible": 6680,
      "Ġgender": 6681,
      "Ġrelax": 6682,
      "Ġpicks": 6683,
      "greg": 6684,
      "ĠJo": 6685,
      "uten": 6686,
      "Ġlabel": 6687,
      "ĠInstead": 6688,
      "Ġheads": 6689,
      "Ġcats": 6690,
      "Ġpurs": 6691,
      "94": 6692,
      "Ġneuro": 6693,
      "Ġdepends": 6694,
      "Ġhundreds": 6695,
      "quit": 6696,
      "Ġconclud": 6697,
      "Ġ1988": 6698,
      "ĠCommission": 6699,
      "Ġmeal": 6700,
      "ules": 6701,
      "ĠVer": 6702,
      "rell": 6703,
      "ĠStan": 6704,
      "05": 6705,
      "Ġsurvey": 6706,
      "Ġimproved": 6707,
      "ĠBefore": 6708,
      "oting": 6709,
      "igenous": 6710,
      "nce": 6711,
      "ĠNations": 6712,
      "Ġprotected": 6713,
      "YS": 6714,
      "Ġtid": 6715,
      "Ġcrew": 6716,
      "Ġraise": 6717,
      "ructure": 6718,
      "inois": 6719,
      "Ġexplan": 6720,
      "Ġindicate": 6721,
      "sm": 6722,
      "ioxide": 6723,
      ".;": 6724,
      "Ġbucket": 6725,
      "Ġexperienced": 6726,
      "Ġwoke": 6727,
      "Ġagricultural": 6728,
      "Ġfigures": 6729,
      "ĠLibr": 6730,
      "Ġinterpret": 6731,
      "Ġboo": 6732,
      "colspan": 6733,
      "iac": 6734,
      "Ġauthors": 6735,
      "Ġsets": 6736,
      "Ġoperating": 6737,
      "Ġappreci": 6738,
      "Ġdistingu": 6739,
      "01": 6740,
      "Ġsurf": 6741,
      "Will": 6742,
      "Ġhydrogen": 6743,
      "Ġwound": 6744,
      "pected": 6745,
      "85": 6746,
      "Ġdefic": 6747,
      "Ġbattery": 6748,
      "from": 6749,
      "Ġunless": 6750,
      "Ġvaccine": 6751,
      "Ġhorm": 6752,
      "Ġrelev": 6753,
      "Ġbees": 6754,
      "ĠIrish": 6755,
      "Ġperiods": 6756,
      "Ġtechnologies": 6757,
      "organ": 6758,
      "Ġcomedy": 6759,
      "Ġmovements": 6760,
      "Ġprinciples": 6761,
      "ĠGovernor": 6762,
      "Ġacademic": 6763,
      "Ġholes": 6764,
      "Ġsentence": 6765,
      "Ġgathered": 6766,
      "Ġwand": 6767,
      "Ġstomach": 6768,
      "Ġlock": 6769,
      "Ġsurvive": 6770,
      "Ġrid": 6771,
      "Ġalright": 6772,
      "Ġqual": 6773,
      "Ġdivision": 6774,
      "Ġbabies": 6775,
      "Ġearthqu": 6776,
      "Ġcontribut": 6777,
      "eer": 6778,
      "Any": 6779,
      "Ġapples": 6780,
      "Ġrepresented": 6781,
      "uration": 6782,
      "Ġinflamm": 6783,
      "Ġclapped": 6784,
      "Ġallowing": 6785,
      "ĠSk": 6786,
      "Ġchemicals": 6787,
      "Ġends": 6788,
      "Ġfalling": 6789,
      "2006": 6790,
      "teries": 6791,
      "ĠFood": 6792,
      "\"|-": 6793,
      "hand": 6794,
      "Ġhorn": 6795,
      "bridge": 6796,
      "Ġplatform": 6797,
      "mother": 6798,
      "Ġconcentr": 6799,
      "Ġcaptain": 6800,
      "Ġcontaining": 6801,
      "atoes": 6802,
      "ĠTime": 6803,
      "norm": 6804,
      "Ġphenomen": 6805,
      "Ġtropical": 6806,
      "2007": 6807,
      "Ġera": 6808,
      "Ġwhenever": 6809,
      "Ġtrial": 6810,
      "Ġvul": 6811,
      "Ġroles": 6812,
      "ĠEastern": 6813,
      "Ġlargely": 6814,
      "Ġcritic": 6815,
      "Ġfailed": 6816,
      "ĠScotland": 6817,
      "Ġprocessing": 6818,
      "Sorry": 6819,
      "Ġfavour": 6820,
      "ĠHistor": 6821,
      "ĠSol": 6822,
      "Ġpossibly": 6823,
      "Hel": 6824,
      "lo": 6825,
      "resents": 6826,
      "Ġadjust": 6827,
      "ĠSoon": 6828,
      "Åį": 6829,
      "mi": 6830,
      "CC": 6831,
      "Ġreducing": 6832,
      "Ġsmiling": 6833,
      "Ġpurposes": 6834,
      "Ġvehicle": 6835,
      "Ġbiological": 6836,
      "ev": 6837,
      "ĠRos": 6838,
      "etts": 6839,
      "\"|-||": 6840,
      "En": 6841,
      "una": 6842,
      "estival": 6843,
      "Ġanxiety": 6844,
      "azz": 6845,
      "Ġextract": 6846,
      "Ġvast": 6847,
      "inson": 6848,
      "Ġlistening": 6849,
      "Ġcomputers": 6850,
      "Ġrecognize": 6851,
      "ĠCa": 6852,
      "Ġmort": 6853,
      "Ġunl": 6854,
      "ĠSil": 6855,
      "century": 6856,
      "chers": 6857,
      "irds": 6858,
      "ĠEdward": 6859,
      "Ġtrig": 6860,
      "500": 6861,
      "Ġowners": 6862,
      "Ġgalax": 6863,
      "Ġcheered": 6864,
      "Ġaffects": 6865,
      "bro": 6866,
      "ĠParliament": 6867,
      "Ġcompetition": 6868,
      "press": 6869,
      "agged": 6870,
      "Ġsheet": 6871,
      "net": 6872,
      "Ġfuck": 6873,
      "Ġtransform": 6874,
      "illing": 6875,
      "Stop": 6876,
      "Ġpowers": 6877,
      "inking": 6878,
      "Ġdeer": 6879,
      "quar": 6880,
      "nergy": 6881,
      "Ġrequirements": 6882,
      "Ġgently": 6883,
      "Ġlessons": 6884,
      "Ġstem": 6885,
      "Ġthoughts": 6886,
      "LL": 6887,
      "crete": 6888,
      "Ġcheer": 6889,
      "pered": 6890,
      "ĠCD": 6891,
      "ompl": 6892,
      "amental": 6893,
      "Ġorganisms": 6894,
      "ĠJeff": 6895,
      "Ġaccomp": 6896,
      "Ġexistence": 6897,
      "Ġoptions": 6898,
      "ĠFederal": 6899,
      "Ġresc": 6900,
      "07": 6901,
      "active": 6902,
      "Ġincred": 6903,
      "Ġnations": 6904,
      "--------": 6905,
      "urance": 6906,
      "amber": 6907,
      "ĠMos": 6908,
      "host": 6909,
      "Ġadvance": 6910,
      "Ġstock": 6911,
      "91": 6912,
      "Ġdioxide": 6913,
      "Ġinches": 6914,
      "VID": 6915,
      "Ġemergency": 6916,
      "iveness": 6917,
      "ova": 6918,
      "arched": 6919,
      "ĠEv": 6920,
      "ĠWal": 6921,
      "ĠIllinois": 6922,
      "Ġpartners": 6923,
      "iate": 6924,
      "Ġpapers": 6925,
      "roduce": 6926,
      "ĠRh": 6927,
      "Ġsuppose": 6928,
      "Ġsudden": 6929,
      "Ġfashion": 6930,
      "2005": 6931,
      "Ġpolicies": 6932,
      "Ġmistake": 6933,
      "Ġfossil": 6934,
      "Ġbackyard": 6935,
      "Since": 6936,
      "Ġextent": 6937,
      "Ġofficers": 6938,
      "Ġfacts": 6939,
      "2008": 6940,
      "achus": 6941,
      "Ġpromote": 6942,
      "Ġbrothers": 6943,
      "Ġmild": 6944,
      "Ġlatter": 6945,
      "Ġmaximum": 6946,
      "poin": 6947,
      "ĠLab": 6948,
      "Another": 6949,
      "encing": 6950,
      "Ġportion": 6951,
      "Ġsubjects": 6952,
      "Ġfool": 6953,
      "Ġliver": 6954,
      "Ġsteel": 6955,
      "ustration": 6956,
      "Ġexclaimed": 6957,
      "Ġmarked": 6958,
      "Ġconcerned": 6959,
      "ĠViet": 6960,
      "isco": 6961,
      "arsh": 6962,
      "Ġpros": 6963,
      "Ġbark": 6964,
      "Ġentirely": 6965,
      "Des": 6966,
      "icking": 6967,
      "Ġadopted": 6968,
      "aming": 6969,
      "Ġdarling": 6970,
      "eline": 6971,
      "Ġrepresents": 6972,
      "aska": 6973,
      "ĠNature": 6974,
      "Ġdram": 6975,
      "oogle": 6976,
      "Ġelectron": 6977,
      "ĠYear": 6978,
      "Per": 6979,
      "Ġnic": 6980,
      "while": 6981,
      "Ġmagnetic": 6982,
      "Ġspray": 6983,
      "Ġassessment": 6984,
      "ĠMum": 6985,
      "Ġtypical": 6986,
      "ĠGet": 6987,
      "Ġtank": 6988,
      "Ġhugs": 6989,
      "cons": 6990,
      "ĠPo": 6991,
      "ĠCommon": 6992,
      "Ġinfected": 6993,
      "weet": 6994,
      "Ġemotional": 6995,
      "olars": 6996,
      "Ġpoison": 6997,
      "sen": 6998,
      "Ġtube": 6999,
      "ĠNob": 7000,
      "ĠSweden": 7001,
      "Ġaccompl": 7002,
      "cked": 7003,
      "ĠStar": 7004,
      "08": 7005,
      "Ġvolt": 7006,
      "Ġstir": 7007,
      "Ġstronger": 7008,
      "ails": 7009,
      "CDS": 7010,
      "ras": 7011,
      "stone": 7012,
      "Communes": 7013,
      "Ġconcentration": 7014,
      "agues": 7015,
      "ĠRom": 7016,
      "some": 7017,
      "Ġidentity": 7018,
      "Ġsamples": 7019,
      "Ġdirt": 7020,
      "Ġtoxic": 7021,
      "Ġattached": 7022,
      "Ġscene": 7023,
      "Ġducks": 7024,
      "ĠMesa": 7025,
      "Ġhem": 7026,
      "Ġeverybody": 7027,
      "Ġmanufacture": 7028,
      "Ġnutrients": 7029,
      "Ġ500": 7030,
      "Later": 7031,
      "ricane": 7032,
      "Ġtub": 7033,
      "ĠOnly": 7034,
      "ishop": 7035,
      "Ġbeauty": 7036,
      "ingly": 7037,
      "asant": 7038,
      "Ġstable": 7039,
      "ĠLu": 7040,
      "Ġlaun": 7041,
      "Ġmeters": 7042,
      "ĠBon": 7043,
      "otic": 7044,
      "Ġmere": 7045,
      "ĠValley": 7046,
      "ĠInside": 7047,
      "More": 7048,
      "Ġtong": 7049,
      "Ġfright": 7050,
      "Ġspoken": 7051,
      "umes": 7052,
      "Ġshirt": 7053,
      "Ġinstruction": 7054,
      "Mia": 7055,
      "oir": 7056,
      "Ġwore": 7057,
      "Ġcircuit": 7058,
      "itzerland": 7059,
      "Ke": 7060,
      "Ġstands": 7061,
      "Ġinnov": 7062,
      "vell": 7063,
      "ĠGeorgia": 7064,
      "Ġsevent": 7065,
      "Ġencourage": 7066,
      "Ġcookie": 7067,
      "ĠOhio": 7068,
      "oston": 7069,
      "ĠOs": 7070,
      "LOI": 7071,
      "Ġpossess": 7072,
      "Ġtasks": 7073,
      "Ġsplit": 7074,
      "Ġconsequences": 7075,
      "ĠOlympics": 7076,
      "ĠIran": 7077,
      "Ġdiagnosis": 7078,
      "ĠISBN": 7079,
      "Ġagriculture": 7080,
      "awa": 7081,
      "vania": 7082,
      "Ġsituations": 7083,
      "Ġclinical": 7084,
      "Ġpron": 7085,
      "Ġpra": 7086,
      "Ġeffectively": 7087,
      "Ġvac": 7088,
      "Ġ45": 7089,
      "urd": 7090,
      "Ġstated": 7091,
      "Ġdespite": 7092,
      "Mar": 7093,
      "Ġspider": 7094,
      "aka": 7095,
      "ĠInc": 7096,
      "Ġwing": 7097,
      "Ġlanded": 7098,
      "ĠâĢ¢": 7099,
      "Ġindependence": 7100,
      "Ġswam": 7101,
      "asy": 7102,
      "Ġstub": 7103,
      "TS": 7104,
      "Ġpractical": 7105,
      "Once": 7106,
      "omer": 7107,
      "Ġrice": 7108,
      "Ġhyper": 7109,
      "ĠPortug": 7110,
      "Ġstudying": 7111,
      "Ġgro": 7112,
      "Ġlaughs": 7113,
      "Ġwarming": 7114,
      "Ġ1987": 7115,
      "Ġfocused": 7116,
      "Ġske": 7117,
      "terday": 7118,
      "Ġtraffic": 7119,
      "ĠJan": 7120,
      "ĠHave": 7121,
      "Ġoccasion": 7122,
      "Ġtears": 7123,
      "Ġexcellent": 7124,
      "ĠBul": 7125,
      "Ġwake": 7126,
      "Mus": 7127,
      "ificial": 7128,
      "Ġ1986": 7129,
      "Ġjobs": 7130,
      "Ġages": 7131,
      "raph": 7132,
      "Ġcooking": 7133,
      "Ġsyndrome": 7134,
      "Ġsunshine": 7135,
      "ĠDet": 7136,
      "Ġrevealed": 7137,
      "Ġmarine": 7138,
      "Ġcomprehens": 7139,
      "ĠDivision": 7140,
      "Ġfurn": 7141,
      "Ġingred": 7142,
      "ĠPrince": 7143,
      "hello": 7144,
      "ĠBang": 7145,
      "mond": 7146,
      "Ġelder": 7147,
      "Ġsolutions": 7148,
      "2004": 7149,
      "Cities": 7150,
      "Ġath": 7151,
      "etherlands": 7152,
      "Ġprocedure": 7153,
      "Ġproport": 7154,
      "Ġpoliticians": 7155,
      "Ġfishing": 7156,
      "Ġlisted": 7157,
      "achusetts": 7158,
      "Ġinterview": 7159,
      "Ġmoist": 7160,
      "Ġexplains": 7161,
      "Ġchosen": 7162,
      "Ġremaining": 7163,
      "87": 7164,
      "Ġlinks": 7165,
      "xts": 7166,
      "uing": 7167,
      "ĠKorea": 7168,
      "Ġfault": 7169,
      "pill": 7170,
      "cies": 7171,
      "Ġhydro": 7172,
      "enses": 7173,
      "alend": 7174,
      "Ġsunny": 7175,
      "Ġwriters": 7176,
      "ĠEliz": 7177,
      "Ġstroke": 7178,
      "Ġchrom": 7179,
      "Ġscore": 7180,
      "ĠMusic": 7181,
      "Ġtested": 7182,
      "Ġcredit": 7183,
      "Ġdelay": 7184,
      "Ġobtained": 7185,
      "alright": 7186,
      "comes": 7187,
      "Ġpure": 7188,
      "Ġopinion": 7189,
      "gment": 7190,
      "Ġexchange": 7191,
      "Ġtowns": 7192,
      "Ġgra": 7193,
      "Ġprem": 7194,
      "abul": 7195,
      "Ġinstrument": 7196,
      "Ġwindows": 7197,
      "zard": 7198,
      "ĠId": 7199,
      "ĠUr": 7200,
      "ategy": 7201,
      "Ġoldest": 7202,
      "Ġcreature": 7203,
      "Ġrelieved": 7204,
      "Ġworldwide": 7205,
      "ĠPower": 7206,
      "Ġacts": 7207,
      "Ġprofession": 7208,
      "Ġfever": 7209,
      "Ġseconds": 7210,
      "Ġcrayons": 7211,
      "Ġregarding": 7212,
      "Ġessay": 7213,
      "oa": 7214,
      "Ġadding": 7215,
      "Ġnaturally": 7216,
      "ĠLook": 7217,
      "Ġflash": 7218,
      "ĠLar": 7219,
      "ĠHill": 7220,
      "Ġinstruments": 7221,
      "Ġrisks": 7222,
      "kes": 7223,
      "Ġthirty": 7224,
      "syl": 7225,
      "Ġconsult": 7226,
      "Ġjew": 7227,
      "Ġrainbow": 7228,
      "Ġmassive": 7229,
      "Ġmirror": 7230,
      "Ġpersons": 7231,
      "Ġspotted": 7232,
      "Ġburied": 7233,
      "ĠForm": 7234,
      "Col": 7235,
      "Ġdancing": 7236,
      "Ġcompounds": 7237,
      "Ġcomposed": 7238,
      "Like": 7239,
      "Ġbull": 7240,
      "Ġharder": 7241,
      "emon": 7242,
      "Ġimagine": 7243,
      "2009": 7244,
      "Ġstrategy": 7245,
      "Ġ1981": 7246,
      "Ġterrible": 7247,
      "Ġrolled": 7248,
      "List": 7249,
      "ĠRights": 7250,
      "Ġdifficulty": 7251,
      "rots": 7252,
      "Ġconqu": 7253,
      "ĠSwitzerland": 7254,
      "Ġcontribute": 7255,
      "ST": 7256,
      "Am": 7257,
      "ilit": 7258,
      "Ġshining": 7259,
      "Ġdynam": 7260,
      "Ġgreatly": 7261,
      "ĠIslands": 7262,
      "Ġsubstance": 7263,
      "Ġvessels": 7264,
      "Ġelectro": 7265,
      "Ġkite": 7266,
      "Ġcoc": 7267,
      "Ġsubsequ": 7268,
      "ĠLater": 7269,
      "Ġburning": 7270,
      "Ġvital": 7271,
      "ressive": 7272,
      "Ġsettled": 7273,
      "Ġagreement": 7274,
      "Ġcaptured": 7275,
      "wan": 7276,
      "ĠNaz": 7277,
      "Ġplanets": 7278,
      "Ġphr": 7279,
      "Ġusual": 7280,
      "Ġcapable": 7281,
      "Ġchoo": 7282,
      "Ġideal": 7283,
      "Ġborrow": 7284,
      "Ġsched": 7285,
      "ĠLibrary": 7286,
      "Ġconversation": 7287,
      "ĠMother": 7288,
      "makes": 7289,
      "Even": 7290,
      "eters": 7291,
      "icing": 7292,
      "ADU": 7293,
      "Ġexpert": 7294,
      "Ġreaches": 7295,
      "Ġpir": 7296,
      "Ġadministr": 7297,
      "ĠMedicine": 7298,
      "ictionary": 7299,
      "writer": 7300,
      "Ġpudd": 7301,
      "Ġstages": 7302,
      "ittens": 7303,
      "ĠSupp": 7304,
      "ĠTechnology": 7305,
      "ushes": 7306,
      "Ġmedium": 7307,
      "Ġcomponent": 7308,
      "ĠKen": 7309,
      "ĠBible": 7310,
      "ĠAsian": 7311,
      "ĠLearning": 7312,
      "ĠSat": 7313,
      "ĠKansas": 7314,
      "Deaths": 7315,
      "Ġrein": 7316,
      "Ġupd": 7317,
      "Ġstre": 7318,
      "ĠFoundation": 7319,
      "bled": 7320,
      "Ġrenew": 7321,
      "Ġanswers": 7322,
      "Ġowned": 7323,
      "Ġbehaviour": 7324,
      "Ġsuffer": 7325,
      "asters": 7326,
      "Ġhonor": 7327,
      "ĠMassachusetts": 7328,
      "ĠNative": 7329,
      "ION": 7330,
      "Ġqueen": 7331,
      "uated": 7332,
      "ĠDise": 7333,
      "ĠConst": 7334,
      "Ġspr": 7335,
      "ira": 7336,
      "unte": 7337,
      "ĠAst": 7338,
      "Ġ1930": 7339,
      "Ġaccidentally": 7340,
      "Ġextended": 7341,
      "Ġdish": 7342,
      "Ġmicros": 7343,
      "atric": 7344,
      "Ġbomb": 7345,
      "Ġclay": 7346,
      "ĠRose": 7347,
      "assed": 7348,
      "Ġstored": 7349,
      "Ġlies": 7350,
      "Ġsequence": 7351,
      "aterpill": 7352,
      "Ġinhabit": 7353,
      "Ġ1984": 7354,
      "ĠVen": 7355,
      "Ġhoriz": 7356,
      "ferent": 7357,
      "Ġphotos": 7358,
      "ĠMur": 7359,
      "DA": 7360,
      "Ġsimpl": 7361,
      "Ġexternal": 7362,
      "Ġber": 7363,
      "cium": 7364,
      "ĠSuch": 7365,
      "inding": 7366,
      "ĠTri": 7367,
      "ĠProfessor": 7368,
      "sylvania": 7369,
      "Ġtrick": 7370,
      "Ġargument": 7371,
      "Ġconstitution": 7372,
      "Ġaccurate": 7373,
      "Ġdensity": 7374,
      "Ġartists": 7375,
      "Ġexperiments": 7376,
      "Ġdollars": 7377,
      "ĠYoung": 7378,
      "2003": 7379,
      "Ġcrab": 7380,
      "andon": 7381,
      "ĠWall": 7382,
      "Ġfinds": 7383,
      "izza": 7384,
      "Ġdrum": 7385,
      "ĠStat": 7386,
      "Ġprinciple": 7387,
      "yan": 7388,
      "Ġdesce": 7389,
      "ĠNetherlands": 7390,
      "Ġkilling": 7391,
      "Ġdetailed": 7392,
      "Ġoven": 7393,
      "ĠPhilipp": 7394,
      "Ġmedal": 7395,
      "Ġdistributed": 7396,
      "Ġdisappeared": 7397,
      "Ġdu": 7398,
      "isk": 7399,
      "acher": 7400,
      "Ġsignals": 7401,
      "Ġimpacts": 7402,
      "Ġthy": 7403,
      "Ġmanager": 7404,
      "Ġ1979": 7405,
      "BS": 7406,
      "usive": 7407,
      "outs": 7408,
      "Ġcircumst": 7409,
      "ĠTra": 7410,
      "Ġdoctors": 7411,
      "Ġexperts": 7412,
      "72": 7413,
      "Ġspecifically": 7414,
      "ĠLiber": 7415,
      "ricts": 7416,
      "cycl": 7417,
      "etime": 7418,
      "ĠProte": 7419,
      "Ġmice": 7420,
      "Ġtemple": 7421,
      "Ġchose": 7422,
      "erals": 7423,
      "Ġreform": 7424,
      "ĠEngine": 7425,
      "Ġprepare": 7426,
      "ouri": 7427,
      "Ġ300": 7428,
      "gian": 7429,
      "Ġefficiency": 7430,
      "itors": 7431,
      "Ġcutting": 7432,
      "Ġmuseum": 7433,
      "hal": 7434,
      "des": 7435,
      "cod": 7436,
      "ishment": 7437,
      "Ġsnack": 7438,
      "ĠDisc": 7439,
      "ĠKnow": 7440,
      "Ġslaves": 7441,
      "Ġresponsibility": 7442,
      ",'": 7443,
      "Ġnewspaper": 7444,
      "ĠExpl": 7445,
      "Ġmillions": 7446,
      "Ġproduces": 7447,
      "hemical": 7448,
      "ami": 7449,
      "yal": 7450,
      "ĠBus": 7451,
      "itud": 7452,
      "ĠColor": 7453,
      "ĠAND": 7454,
      "ela": 7455,
      "ĠJac": 7456,
      "Ġproducing": 7457,
      "Ġsticks": 7458,
      "Ġsecondary": 7459,
      "Ġfundamental": 7460,
      "Ġenorm": 7461,
      "ĠKim": 7462,
      "Ġladder": 7463,
      "acement": 7464,
      "ĠWay": 7465,
      "ĠLabor": 7466,
      "ĠYOU": 7467,
      "Ġrefused": 7468,
      "ĠEmperor": 7469,
      "Ġmotiv": 7470,
      "called": 7471,
      "Ġgained": 7472,
      "Ġbugs": 7473,
      "Ġpleased": 7474,
      "Ġsuffering": 7475,
      "ardon": 7476,
      "Ġjumping": 7477,
      "Ġcovers": 7478,
      "inction": 7479,
      "ĠEconom": 7480,
      "Ġjudge": 7481,
      "ador": 7482,
      "Ġconcerns": 7483,
      "ĠLy": 7484,
      "icts": 7485,
      "Ġyield": 7486,
      "Ġpale": 7487,
      "Ġkilomet": 7488,
      "ĠCommittee": 7489,
      "anche": 7490,
      "Ġdomestic": 7491,
      "Ġinstitutions": 7492,
      "worth": 7493,
      "MS": 7494,
      "ooh": 7495,
      "Ġlift": 7496,
      "Ġ1985": 7497,
      "ĠHIV": 7498,
      "lar": 7499,
      "ĠCOVID": 7500,
      "FCH": 7501,
      "ĠAustria": 7502,
      "ĠFurther": 7503,
      "Ġdrawn": 7504,
      "asses": 7505,
      "Ġintelligence": 7506,
      "ĠObs": 7507,
      "ĠColumbia": 7508,
      "Ġabund": 7509,
      "Ġstations": 7510,
      "ĠLove": 7511,
      "2001": 7512,
      "Ġvulner": 7513,
      "stream": 7514,
      "tles": 7515,
      "agram": 7516,
      "ĠMoon": 7517,
      "ĠSanta": 7518,
      "Ġaccel": 7519,
      "Ġcognitive": 7520,
      "Ġunable": 7521,
      "Ġalph": 7522,
      "ĠEnergy": 7523,
      "ĠHome": 7524,
      "Erm": 7525,
      "Ġtag": 7526,
      "ĠLONE": 7527,
      "Ġrelevant": 7528,
      "ĠLONEOS": 7529,
      "Ġstruggle": 7530,
      "abase": 7531,
      "Ġmigr": 7532,
      "Ġtie": 7533,
      "Ġprincip": 7534,
      "icted": 7535,
      "Ġharvest": 7536,
      "Ġimmun": 7537,
      "Ġlamp": 7538,
      "km": 7539,
      "ĠOxford": 7540,
      "osph": 7541,
      "Ġtreatments": 7542,
      "imp": 7543,
      "ĠSenate": 7544,
      "Ġblind": 7545,
      "Ġquarter": 7546,
      "Ġcris": 7547,
      "Ġshouldn": 7548,
      "ĠHy": 7549,
      "ĠUSA": 7550,
      "roid": 7551,
      "Ġzero": 7552,
      "Ġwalks": 7553,
      "Ġpassing": 7554,
      "Ġrocket": 7555,
      "raham": 7556,
      "ĠAny": 7557,
      "Ġordinary": 7558,
      "Ġfifty": 7559,
      "allel": 7560,
      "Ġethnic": 7561,
      "ĠSunday": 7562,
      "anges": 7563,
      "ĠOK": 7564,
      "Ġmyth": 7565,
      "Ġdescribes": 7566,
      "your": 7567,
      "ĠPennsylvania": 7568,
      "Ġpersist": 7569,
      "Ġcreatures": 7570,
      "Ġsport": 7571,
      "Thanks": 7572,
      "Ġrural": 7573,
      "Ġuniform": 7574,
      "Ġmetab": 7575,
      "angers": 7576,
      "ĠMicro": 7577,
      "Ġlandscape": 7578,
      "ĠAlexander": 7579,
      "osion": 7580,
      "Ġprove": 7581,
      "ĠEp": 7582,
      "ĠMedical": 7583,
      "ulture": 7584,
      "Ġreplace": 7585,
      "Ġsearched": 7586,
      "rick": 7587,
      "eping": 7588,
      "Ġincl": 7589,
      "68": 7590,
      "ĠUsing": 7591,
      "Ġflour": 7592,
      "ĠNorm": 7593,
      "bab": 7594,
      "Ġweren": 7595,
      "Em": 7596,
      "Ġdebut": 7597,
      "Ġconvent": 7598,
      "IR": 7599,
      "gend": 7600,
      "ĠDemocratic": 7601,
      "Ġrandom": 7602,
      "Ġmarch": 7603,
      "Ġbrief": 7604,
      "Ġpenc": 7605,
      "Ġsoap": 7606,
      "Ġ1940": 7607,
      "ifted": 7608,
      "IG": 7609,
      "also": 7610,
      "ighed": 7611,
      "Ġdiscussed": 7612,
      "67": 7613,
      "Ġtent": 7614,
      "Ġnerve": 7615,
      "Ġalbums": 7616,
      "Ġproducer": 7617,
      "coln": 7618,
      "Ġoption": 7619,
      "Ġfeeding": 7620,
      "HO": 7621,
      "ja": 7622,
      "Ġplanned": 7623,
      "ĠKent": 7624,
      "Ġballs": 7625,
      "Ġaudience": 7626,
      "aning": 7627,
      "Ġoral": 7628,
      "Ġdiversity": 7629,
      "ĠOffice": 7630,
      "Ġmagazine": 7631,
      "ĠImp": 7632,
      "Ġrib": 7633,
      "rep": 7634,
      "ĠBoston": 7635,
      "Ġcrayon": 7636,
      "ĠProt": 7637,
      "Ġsupplies": 7638,
      "Er": 7639,
      "ĠBobby": 7640,
      "uous": 7641,
      "Ġneither": 7642,
      "Ġinterests": 7643,
      "Ġmachines": 7644,
      "ĠOk": 7645,
      "Ġreduction": 7646,
      "Ġequival": 7647,
      "Ġinstructions": 7648,
      "perial": 7649,
      "Ġstudio": 7650,
      "Ġcrop": 7651,
      "Two": 7652,
      "Ġboxes": 7653,
      "ĠNin": 7654,
      "ĠDar": 7655,
      "cia": 7656,
      "Ġtwelve": 7657,
      "Ġacting": 7658,
      "Ġgovernments": 7659,
      "Ġparticipants": 7660,
      "Ġformula": 7661,
      "ĠJohnson": 7662,
      "Ġboats": 7663,
      "',": 7664,
      "Ġneur": 7665,
      "ĠBank": 7666,
      "2002": 7667,
      "ĠRead": 7668,
      "Ġneighb": 7669,
      "Polit": 7670,
      "Ġforgive": 7671,
      "roduct": 7672,
      "ĠEth": 7673,
      "inated": 7674,
      "Ġintr": 7675,
      "Ġhockey": 7676,
      "United": 7677,
      "ĠBern": 7678,
      "illiant": 7679,
      "Ġsafely": 7680,
      "coming": 7681,
      "Cal": 7682,
      "Ġformal": 7683,
      "ĠGar": 7684,
      "Ġcleaning": 7685,
      "Ġclaims": 7686,
      "ĠHa": 7687,
      "Ġachieved": 7688,
      "alse": 7689,
      "oster": 7690,
      "Ġ1983": 7691,
      "Ġreward": 7692,
      "Ġchildhood": 7693,
      "Ġid": 7694,
      "Ġelectronic": 7695,
      "Ġpainted": 7696,
      "Ġhttps": 7697,
      "itely": 7698,
      "Ġboss": 7699,
      "Ġfootballer": 7700,
      "ĠConfed": 7701,
      "turn": 7702,
      "abric": 7703,
      "Ġjustice": 7704,
      "Ġtongue": 7705,
      "cing": 7706,
      "ĠBaby": 7707,
      "Ġlaunched": 7708,
      "adel": 7709,
      "uilding": 7710,
      "Ġawareness": 7711,
      "Ġpit": 7712,
      "Ġembarr": 7713,
      "Ġcrazy": 7714,
      "Ġgigg": 7715,
      "ĠJackson": 7716,
      "Ġviews": 7717,
      "Ġchannel": 7718,
      "alendar": 7719,
      "estion": 7720,
      "ĠBuddh": 7721,
      "acts": 7722,
      "vol": 7723,
      "Ġcord": 7724,
      "Ġinner": 7725,
      "Ġbreathing": 7726,
      "Ġalarm": 7727,
      "Ġreliable": 7728,
      "Daddy": 7729,
      "Ġ75": 7730,
      "Ġsustainable": 7731,
      "gans": 7732,
      "Ġformat": 7733,
      "Ġglow": 7734,
      "Ġwolf": 7735,
      "ifts": 7736,
      "Ġcycl": 7737,
      "thur": 7738,
      "ĠAnne": 7739,
      "inations": 7740,
      "Ġtough": 7741,
      "Ġplain": 7742,
      "ĠClin": 7743,
      "Ġrising": 7744,
      "orith": 7745,
      "Ġvel": 7746,
      "Ġpor": 7747,
      "Ġknife": 7748,
      "such": 7749,
      "Ġskill": 7750,
      "take": 7751,
      "Ġcurriculum": 7752,
      "Ġantibiot": 7753,
      "Ġ1982": 7754,
      "Ġmac": 7755,
      "Ġsav": 7756,
      "sit": 7757,
      "ĠGames": 7758,
      "Ã³n": 7759,
      "Ġafford": 7760,
      "ĠFour": 7761,
      "upid": 7762,
      "ungle": 7763,
      "ĠBal": 7764,
      "Ġpeaceful": 7765,
      "Ġinstall": 7766,
      "EE": 7767,
      "ĠMill": 7768,
      "Ġepisode": 7769,
      "Ġplenty": 7770,
      "ptions": 7771,
      "ulin": 7772,
      "Ġallerg": 7773,
      "Ġknock": 7774,
      "ĠWik": 7775,
      "inity": 7776,
      "ĠElizabeth": 7777,
      "fr": 7778,
      "Ġbringing": 7779,
      "Ġcapture": 7780,
      "Ġscat": 7781,
      "Ġeaten": 7782,
      "2020": 7783,
      "Ġsecure": 7784,
      "Ġ1973": 7785,
      "Ġbedroom": 7786,
      "ĠMen": 7787,
      "hire": 7788,
      "wa": 7789,
      "ĠProvince": 7790,
      "Ġpermanent": 7791,
      "engu": 7792,
      "Ġderived": 7793,
      "gly": 7794,
      "hus": 7795,
      "Ġzone": 7796,
      "ĠPy": 7797,
      "Ġtiger": 7798,
      "ĠThree": 7799,
      "oven": 7800,
      "Ġhardly": 7801,
      "Ġvisited": 7802,
      "Ġtonight": 7803,
      "icide": 7804,
      "Ġ<": 7805,
      "Ġtopics": 7806,
      "ented": 7807,
      "ĠPrize": 7808,
      "Ġweapons": 7809,
      "ĠStudies": 7810,
      "Ġsomewhat": 7811,
      "ĠCre": 7812,
      "ĠHor": 7813,
      "ĠSammy": 7814,
      "yo": 7815,
      "ĠWales": 7816,
      "ĠChief": 7817,
      "ansion": 7818,
      "Ġexcit": 7819,
      "Ġlawyer": 7820,
      "Take": 7821,
      "Ġwine": 7822,
      "hin": 7823,
      "ĠGre": 7824,
      "ĠMah": 7825,
      "Ġfeathers": 7826,
      "Ġrespir": 7827,
      "ĠTre": 7828,
      "Ġcerem": 7829,
      "Ġincreasingly": 7830,
      "Ġshelf": 7831,
      "verty": 7832,
      "ĠCorn": 7833,
      "era": 7834,
      "Ġ1972": 7835,
      "uma": 7836,
      "Ġintroduction": 7837,
      "Ġkingdom": 7838,
      "Ġpilot": 7839,
      "ĠAri": 7840,
      "||||||||": 7841,
      "Ġenzy": 7842,
      "Ġcontem": 7843,
      "igs": 7844,
      "Ġfemales": 7845,
      "Ġdepart": 7846,
      "iology": 7847,
      "Ġscream": 7848,
      "Ġtechnical": 7849,
      "Ġnarr": 7850,
      "Ġvictory": 7851,
      "Ġcaterpill": 7852,
      "Ġ1976": 7853,
      "Ġpoverty": 7854,
      "Ġregularly": 7855,
      "ori": 7856,
      "rison": 7857,
      "Ġknocked": 7858,
      "Ġsensitive": 7859,
      "ico": 7860,
      "ĠLisa": 7861,
      "ati": 7862,
      "Ġregional": 7863,
      "Ġdecrease": 7864,
      "GRA": 7865,
      "bar": 7866,
      "Ġorders": 7867,
      "otton": 7868,
      "sts": 7869,
      "Ġpoem": 7870,
      "ME": 7871,
      "ĠThose": 7872,
      "Ġvoltage": 7873,
      "Ġlect": 7874,
      "Ġsword": 7875,
      "Ġmusician": 7876,
      "ĠSqu": 7877,
      "ĠST": 7878,
      "Ġsteam": 7879,
      "Ġwinning": 7880,
      "ĠMichigan": 7881,
      "Ġped": 7882,
      "Ġslave": 7883,
      "Ġhighlight": 7884,
      "Ġtied": 7885,
      "ĠSup": 7886,
      "Ġmarks": 7887,
      "Ġbears": 7888,
      "Ġmysterious": 7889,
      "Ġselection": 7890,
      "Ġcooper": 7891,
      "03": 7892,
      "krain": 7893,
      "sters": 7894,
      "Ġappointed": 7895,
      "adesh": 7896,
      "Ġenormous": 7897,
      "Ġmembr": 7898,
      "itty": 7899,
      "ĠRoad": 7900,
      "rer": 7901,
      "Ġnan": 7902,
      "mend": 7903,
      "73": 7904,
      "Ġretain": 7905,
      "Ġsubstant": 7906,
      "Ġholiday": 7907,
      "ĠFire": 7908,
      "ĠInformation": 7909,
      "Ġfan": 7910,
      "ĠFer": 7911,
      "ĠFather": 7912,
      "ĠEmily": 7913,
      "Ġvehicles": 7914,
      "Ġphysics": 7915,
      "2017": 7916,
      "Ã±": 7917,
      "Ġcultures": 7918,
      "Ġluck": 7919,
      "Ġcultiv": 7920,
      "Ġwitness": 7921,
      "certain": 7922,
      "ĠJr": 7923,
      "idelines": 7924,
      "ĠPop": 7925,
      "aste": 7926,
      "Ġfed": 7927,
      "ĠMissouri": 7928,
      "Ġrestaur": 7929,
      "ĠAge": 7930,
      "ĠFluffy": 7931,
      "ulating": 7932,
      "nie": 7933,
      "ĠFar": 7934,
      "ĠStep": 7935,
      "ĠJones": 7936,
      "LS": 7937,
      "Ġofficials": 7938,
      "ĠTurk": 7939,
      "Ġexpressed": 7940,
      "Ġlayers": 7941,
      "Ġsurvival": 7942,
      "79": 7943,
      "oples": 7944,
      "ĠPot": 7945,
      "Before": 7946,
      "Ġ36": 7947,
      "Car": 7948,
      "Cont": 7949,
      "Ġseats": 7950,
      "FF": 7951,
      "Ġbutt": 7952,
      "ĠÎ": 7953,
      "ĠMajor": 7954,
      "Ġsuitable": 7955,
      "Stud": 7956,
      "Ġpiano": 7957,
      "rovers": 7958,
      "Ġcopper": 7959,
      "Ed": 7960,
      "Ġroute": 7961,
      "yles": 7962,
      "ĠDa": 7963,
      "Ġmedications": 7964,
      "Ġscript": 7965,
      "rors": 7966,
      "Ġ1945": 7967,
      "Ġ1977": 7968,
      "Ġmatches": 7969,
      "omething": 7970,
      "Ġtasty": 7971,
      "Ġwilling": 7972,
      "54": 7973,
      "Ġreactions": 7974,
      "lem": 7975,
      "Ġsandwich": 7976,
      "Ġshy": 7977,
      "ypes": 7978,
      "Ġpossibility": 7979,
      "1999": 7980,
      "ĠYeah": 7981,
      "ĠSpring": 7982,
      "Ġyesterday": 7983,
      "89": 7984,
      "Ġought": 7985,
      "71": 7986,
      "Ġcouch": 7987,
      "ĠEs": 7988,
      "Ġsan": 7989,
      "Ġphoto": 7990,
      "ĠHung": 7991,
      "ĠMike": 7992,
      "allow": 7993,
      "ĠOfficial": 7994,
      "Ġnobody": 7995,
      "ĠMake": 7996,
      "Ġrude": 7997,
      "Ġmales": 7998,
      "ĠTimes": 7999,
      "Ġretired": 8000,
      "Ġcert": 8001,
      "ĠHot": 8002,
      "Ġprogramming": 8003,
      "Ġrepair": 8004,
      "ceived": 8005,
      "Ġsoldier": 8006,
      "Ġdistant": 8007,
      "Ġperspective": 8008,
      "Ġcrucial": 8009,
      "Ġ1975": 8010,
      "Ġfacilities": 8011,
      "weight": 8012,
      "Ġinfant": 8013,
      "Ġjelly": 8014,
      "otal": 8015,
      "agan": 8016,
      "ĠSecretary": 8017,
      "apa": 8018,
      "Early": 8019,
      "Ġmatters": 8020,
      "Ġopens": 8021,
      "Ġpresents": 8022,
      "Ġdiamond": 8023,
      "heart": 8024,
      "Ġhell": 8025,
      "Ġzoom": 8026,
      "TH": 8027,
      "Ġ32": 8028,
      "Ġstops": 8029,
      "Ġcomposition": 8030,
      "eenth": 8031,
      "Ġwra": 8032,
      "Ġangle": 8033,
      "ocracy": 8034,
      "Ġminimum": 8035,
      "grad": 8036,
      "Ġsoul": 8037,
      "Ġbasketball": 8038,
      "aret": 8039,
      "Ġbaseball": 8040,
      "htm": 8041,
      "Ġthroat": 8042,
      "Ġpartner": 8043,
      "Ġinvited": 8044,
      "Ġremark": 8045,
      "59": 8046,
      "Ġconfirmed": 8047,
      "say": 8048,
      "olve": 8049,
      "Ġproved": 8050,
      "Ġsla": 8051,
      "Ġacids": 8052,
      "Ġabuse": 8053,
      "Ġdepth": 8054,
      "ĠSciences": 8055,
      "uns": 8056,
      "omers": 8057,
      "Ġprepar": 8058,
      "Ġending": 8059,
      "ĠThrough": 8060,
      "free": 8061,
      "hess": 8062,
      "ellect": 8063,
      "Ġobservations": 8064,
      "ĠAlice": 8065,
      "Ġnurse": 8066,
      "vironments": 8067,
      "Ġpotentially": 8068,
      "cluding": 8069,
      "Ġfairly": 8070,
      "Ġloyal": 8071,
      "Ġhasn": 8072,
      "Ġ1978": 8073,
      "imental": 8074,
      "Their": 8075,
      "ĠLight": 8076,
      "Ġdecline": 8077,
      "berries": 8078,
      "Ġtoler": 8079,
      "Ġdescription": 8080,
      "affe": 8081,
      "Sc": 8082,
      "Ġsuccessfully": 8083,
      "Ġcoach": 8084,
      "utely": 8085,
      "cribed": 8086,
      "Ġpicnic": 8087,
      "oval": 8088,
      "Aust": 8089,
      "Actors": 8090,
      "ĠFrancisco": 8091,
      "Ġprince": 8092,
      "Ġwheels": 8093,
      "ĠLincoln": 8094,
      "ustrated": 8095,
      "Ġreign": 8096,
      "Ġsumm": 8097,
      "Ġbin": 8098,
      "ĠEc": 8099,
      "ĠDaniel": 8100,
      "Ġindicates": 8101,
      "ĠPsych": 8102,
      "Ġdocuments": 8103,
      "Ġspaces": 8104,
      "Ġweigh": 8105,
      "ĠCoast": 8106,
      "Im": 8107,
      "ĠControl": 8108,
      "icit": 8109,
      "Ġextensive": 8110,
      "ffered": 8111,
      "Ġpointing": 8112,
      "elle": 8113,
      "Ġfiles": 8114,
      "Ġfasc": 8115,
      "Ġdanced": 8116,
      "Ġguns": 8117,
      "iture": 8118,
      "Ġanxious": 8119,
      "Ġtribes": 8120,
      "itable": 8121,
      "Ġbags": 8122,
      "Ġcrisis": 8123,
      "04": 8124,
      "Ġteen": 8125,
      "ĠPoland": 8126,
      "making": 8127,
      "74": 8128,
      "Ġwildlife": 8129,
      "Ġrecycl": 8130,
      "Ġcontained": 8131,
      "ĠFree": 8132,
      "Ġfancy": 8133,
      "Ġapproaches": 8134,
      "Ġflows": 8135,
      "Ġscholars": 8136,
      "Ġchlor": 8137,
      "Ġmineral": 8138,
      "Ġtrail": 8139,
      "Ġspo": 8140,
      "Ġourselves": 8141,
      "would": 8142,
      "IA": 8143,
      "ĠRog": 8144,
      "ĠKat": 8145,
      "Ġmurder": 8146,
      "Ġpassage": 8147,
      "Ġroyal": 8148,
      "Ġhate": 8149,
      "ĠPa": 8150,
      "ĠJean": 8151,
      "Ġflav": 8152,
      "Ġcircumstances": 8153,
      "Man": 8154,
      "Ġmixt": 8155,
      "Ġdiff": 8156,
      "Ġdamaged": 8157,
      "Ġseparated": 8158,
      "ĠNatural": 8159,
      "ficial": 8160,
      "Ġdesk": 8161,
      "Ġshoulder": 8162,
      "ĠJersey": 8163,
      "Ġvariable": 8164,
      "Ġ1971": 8165,
      "Ġsin": 8166,
      "ĠÐ": 8167,
      "Ġtorn": 8168,
      "Ġcant": 8169,
      "ĠSa": 8170,
      "Ġsack": 8171,
      "hma": 8172,
      "Ġassociation": 8173,
      "Ġpropos": 8174,
      "Ġcoastal": 8175,
      "ĠâĢ¦": 8176,
      "Ġscientist": 8177,
      "Ġclothing": 8178,
      "Ġbrilliant": 8179,
      "SO": 8180,
      "Ġmarry": 8181,
      "Ġfallen": 8182,
      "ĠCub": 8183,
      "Ġhunting": 8184,
      "Ġbeet": 8185,
      "Ġblew": 8186,
      "1990": 8187,
      "bra": 8188,
      "2011": 8189,
      "Ġslavery": 8190,
      "ĠBir": 8191,
      "Ġlocations": 8192,
      "uster": 8193,
      "ĠAtt": 8194,
      "Ġwrest": 8195,
      "Ġ1920": 8196,
      "Ġveter": 8197,
      "oos": 8198,
      "Ġtruly": 8199,
      "Ġpizza": 8200,
      "09": 8201,
      "Ġroads": 8202,
      "curity": 8203,
      "ĠDev": 8204,
      "keys": 8205,
      "opy": 8206,
      "Ġmosquit": 8207,
      "DF": 8208,
      "ĠKorean": 8209,
      "Ġmonitoring": 8210,
      "Ġexcitement": 8211,
      "itionally": 8212,
      "Ġnetworks": 8213,
      "Ġinflammation": 8214,
      "ivered": 8215,
      "Ġbrings": 8216,
      "Over": 8217,
      "Ġpregnancy": 8218,
      "fortunately": 8219,
      "log": 8220,
      "Ġconscious": 8221,
      "Ġresulted": 8222,
      "ĠTit": 8223,
      "Ġrhyth": 8224,
      "cific": 8225,
      "ĠOlympic": 8226,
      "Ġmerc": 8227,
      "vocal": 8228,
      "Ġprices": 8229,
      "Ġkeeps": 8230,
      "ĠBear": 8231,
      "Ġmagnet": 8232,
      "Today": 8233,
      "bury": 8234,
      "Ġsettlement": 8235,
      "Ġalgorith": 8236,
      "level": 8237,
      "Ġcozy": 8238,
      "inger": 8239,
      "lace": 8240,
      "Ġpolitics": 8241,
      "Ġrecording": 8242,
      "Ġhappiness": 8243,
      "Ġrealize": 8244,
      "ĠRail": 8245,
      "ican": 8246,
      "Ġadministration": 8247,
      "Ġduty": 8248,
      "ĠEst": 8249,
      "Ġstruck": 8250,
      "ĠSand": 8251,
      "Ġsilence": 8252,
      "ker": 8253,
      "ĠMexican": 8254,
      "ĠTown": 8255,
      "ĠPC": 8256,
      "issipp": 8257,
      "Ġeru": 8258,
      "har": 8259,
      "Ġclick": 8260,
      "Ġgenerate": 8261,
      "Ġdesert": 8262,
      "dr": 8263,
      "Ġearliest": 8264,
      "Ġarchitecture": 8265,
      "Ġnitrogen": 8266,
      "Ġ1974": 8267,
      "Ġtransmission": 8268,
      "Ġcrick": 8269,
      "Ġbarn": 8270,
      "uy": 8271,
      "ĠKenn": 8272,
      "Ġrom": 8273,
      "ns": 8274,
      "Ġcreates": 8275,
      "Ġatoms": 8276,
      "ĠRay": 8277,
      "Ġphilosophy": 8278,
      "Ġlatest": 8279,
      "Ġouter": 8280,
      "ĠReview": 8281,
      "ĠRam": 8282,
      "ĠJenny": 8283,
      "Give": 8284,
      "ppy": 8285,
      "Ġ1968": 8286,
      "ĠVis": 8287,
      "point": 8288,
      "try": 8289,
      "Brit": 8290,
      "ierce": 8291,
      "itter": 8292,
      "53": 8293,
      "Ġstupid": 8294,
      "Ġvalid": 8295,
      "02": 8296,
      "pic": 8297,
      "Ġrelief": 8298,
      "Ġcheap": 8299,
      "Ġsuffered": 8300,
      "Ġrequest": 8301,
      "Ġdiverse": 8302,
      "jan": 8303,
      "ĠFamily": 8304,
      "Ġtrains": 8305,
      "ersonal": 8306,
      "erving": 8307,
      "Ġsector": 8308,
      "points": 8309,
      "Ġauthorities": 8310,
      "Ġcoins": 8311,
      "lean": 8312,
      "ften": 8313,
      "Ġtal": 8314,
      "ĠVe": 8315,
      "Ġphotograph": 8316,
      "Ġca": 8317,
      "Ġtone": 8318,
      "Ġmechanism": 8319,
      "Ġiniti": 8320,
      "ali": 8321,
      "Ġorgans": 8322,
      "ĠMaria": 8323,
      "Ġain": 8324,
      "ĠTogether": 8325,
      "soft": 8326,
      "Ġrecon": 8327,
      "ĠVan": 8328,
      "Ġfabric": 8329,
      "ĠBoy": 8330,
      "Ġclaimed": 8331,
      "achel": 8332,
      "Ġchapter": 8333,
      "mir": 8334,
      "ĠRepresent": 8335,
      "western": 8336,
      "Ġkick": 8337,
      "ĠColl": 8338,
      "GB": 8339,
      "father": 8340,
      "Ġevil": 8341,
      "Ġperfectly": 8342,
      "Ġmobile": 8343,
      "bell": 8344,
      "Ġwithd": 8345,
      "Ġspots": 8346,
      "ĠArgent": 8347,
      "ĠEarly": 8348,
      "ĠNYS": 8349,
      "athan": 8350,
      "ĠCy": 8351,
      "Ġviruses": 8352,
      "Ġwarning": 8353,
      "abulary": 8354,
      "has": 8355,
      "ili": 8356,
      "ĠCross": 8357,
      "ĠTop": 8358,
      "eman": 8359,
      "Ġtrunk": 8360,
      "Ġinfluenced": 8361,
      "cal": 8362,
      "acle": 8363,
      "Ġdispl": 8364,
      "Ġmelt": 8365,
      "Ġenvironments": 8366,
      "Ġwhale": 8367,
      "Ġdoors": 8368,
      ".|": 8369,
      "will": 8370,
      "ventually": 8371,
      "Ġerror": 8372,
      "ĠCare": 8373,
      "ifies": 8374,
      "Ġmathematics": 8375,
      "Ġvalley": 8376,
      "icon": 8377,
      "Ġdiagnosed": 8378,
      "ilty": 8379,
      "Ġlaunch": 8380,
      "ĠFox": 8381,
      "Ġmit": 8382,
      "Ġstamp": 8383,
      "Ġnurs": 8384,
      "THE": 8385,
      "Ġdisturb": 8386,
      "Ġprinted": 8387,
      "Ġtelephone": 8388,
      "urrent": 8389,
      "Ġabandon": 8390,
      "Ġresidents": 8391,
      "Ġvolunte": 8392,
      "inder": 8393,
      "Ġcolleagues": 8394,
      "bes": 8395,
      "Ġcm": 8396,
      "Ġhook": 8397,
      "Ġlaboratory": 8398,
      "Ġabnorm": 8399,
      "izer": 8400,
      "Ġeveryday": 8401,
      "ĠWindows": 8402,
      "iminal": 8403,
      "ifferent": 8404,
      "51": 8405,
      "okes": 8406,
      "Ġ!": 8407,
      "ĠNic": 8408,
      "uther": 8409,
      "using": 8410,
      "Ġexamine": 8411,
      "Ġgenerated": 8412,
      "Ġplates": 8413,
      "Ġgreenhouse": 8414,
      "rates": 8415,
      "Ġsatisf": 8416,
      "ype": 8417,
      "aki": 8418,
      "Ġsacr": 8419,
      "looks": 8420,
      "Ġmaps": 8421,
      "aze": 8422,
      "rane": 8423,
      "Ġsunlight": 8424,
      "Ġbathroom": 8425,
      "Ġdrain": 8426,
      "Ġinhabitants": 8427,
      "Ġentr": 8428,
      "idae": 8429,
      "Ġtrained": 8430,
      "Sports": 8431,
      "Ġblog": 8432,
      "Ġpour": 8433,
      "Ġprovin": 8434,
      "à¥": 8435,
      "Ġdesire": 8436,
      "iday": 8437,
      "enger": 8438,
      "Jim": 8439,
      "Ġpositions": 8440,
      "rous": 8441,
      "Ġcub": 8442,
      "dis": 8443,
      "Ġaccounts": 8444,
      "maybe": 8445,
      "zing": 8446,
      "2012": 8447,
      "Ġscreamed": 8448,
      "Ġproceed": 8449,
      "Ġprey": 8450,
      "issippi": 8451,
      "Ġratio": 8452,
      "Ġseasons": 8453,
      "ĠGreece": 8454,
      "Ġdefend": 8455,
      "Ġadequ": 8456,
      "Ġcommit": 8457,
      "ĠScottish": 8458,
      "EC": 8459,
      "Ġcalcium": 8460,
      "utenant": 8461,
      "flies": 8462,
      "Ġrod": 8463,
      "MP": 8464,
      "venue": 8465,
      "oof": 8466,
      "Wait": 8467,
      "Ġburned": 8468,
      "otion": 8469,
      "Ġobst": 8470,
      "Ill": 8471,
      "uted": 8472,
      "Ġexists": 8473,
      "Ġye": 8474,
      "estyle": 8475,
      "Ġworm": 8476,
      "iginal": 8477,
      "ĠNavy": 8478,
      "Ġhypothes": 8479,
      "ibilities": 8480,
      "Ġequivalent": 8481,
      "sex": 8482,
      "Ġshift": 8483,
      "Ġprocedures": 8484,
      "Ġshock": 8485,
      "Ġbeliefs": 8486,
      "Ġfrogs": 8487,
      "Ġwis": 8488,
      "Ġentertain": 8489,
      "ascular": 8490,
      "Ġtightly": 8491,
      "ĠUkrain": 8492,
      "ĠLanguage": 8493,
      "ĠHon": 8494,
      "Ġtips": 8495,
      "Ġ1969": 8496,
      "52": 8497,
      "ĠForest": 8498,
      "rastructure": 8499,
      "Ġplus": 8500,
      "Ġdrops": 8501,
      "Ġsatellite": 8502,
      "Ġpipe": 8503,
      "Ġfet": 8504,
      "Ġrug": 8505,
      "Ġjungle": 8506,
      "2013": 8507,
      "ĠHam": 8508,
      "Ġcous": 8509,
      "Ġpy": 8510,
      "opedia": 8511,
      "isy": 8512,
      "Ġruled": 8513,
      "usal": 8514,
      "2014": 8515,
      "Ġtons": 8516,
      "Ġclown": 8517,
      "Ġharmful": 8518,
      "Lucy": 8519,
      "Ġmummy": 8520,
      "olester": 8521,
      "Ġedition": 8522,
      "Ġexplanation": 8523,
      "last": 8524,
      "Ġcircles": 8525,
      "Ġcommunicate": 8526,
      "Ġparam": 8527,
      "Ġprompt": 8528,
      "Ġarchae": 8529,
      "Ġreaders": 8530,
      "Ġbare": 8531,
      "Ġsubstances": 8532,
      "ĠAndrew": 8533,
      "adian": 8534,
      "Ġtip": 8535,
      "adium": 8536,
      "Ġshake": 8537,
      "arant": 8538,
      "aft": 8539,
      "Ġfoundation": 8540,
      "Ġrecovery": 8541,
      "Ġsmelled": 8542,
      "Ġparallel": 8543,
      "Ġwhereas": 8544,
      "Ġsnowman": 8545,
      "Ġindex": 8546,
      "Ġthread": 8547,
      "Ġinher": 8548,
      "ĠYet": 8549,
      "Ġserving": 8550,
      "atre": 8551,
      "Ġemail": 8552,
      "leton": 8553,
      "gov": 8554,
      "earchers": 8555,
      "Ġdiscipl": 8556,
      "Ġbanks": 8557,
      "ĠIV": 8558,
      "ĠData": 8559,
      "Ġshark": 8560,
      "Mama": 8561,
      "Ġgluc": 8562,
      "Ġingredients": 8563,
      "Ġtissues": 8564,
      "Ġdestruction": 8565,
      "hetic": 8566,
      "rency": 8567,
      "Ġunion": 8568,
      "Ġartificial": 8569,
      "Ġpleasure": 8570,
      "Ġagent": 8571,
      "ĠSupreme": 8572,
      "ĠAnton": 8573,
      "Ġgods": 8574,
      "Ġelectrons": 8575,
      "Ġfifth": 8576,
      "ĠForce": 8577,
      "Ġcalendar": 8578,
      "ĠPict": 8579,
      "Ġcarrots": 8580,
      "Ġadvoc": 8581,
      "Ġmeasuring": 8582,
      "roph": 8583,
      "Ġhid": 8584,
      "Ġtowel": 8585,
      "Ġpacked": 8586,
      "Ġselfish": 8587,
      "Ġunp": 8588,
      "Ġadap": 8589,
      "uels": 8590,
      "adelph": 8591,
      "Ġreef": 8592,
      "Ġsupporting": 8593,
      "Ġwheat": 8594,
      "rite": 8595,
      "Ġstrengthen": 8596,
      "Ġwip": 8597,
      "Ġissued": 8598,
      "Ġnomin": 8599,
      "Ġleadership": 8600,
      "Ġdoi": 8601,
      "orous": 8602,
      "outheast": 8603,
      "Ġcounties": 8604,
      "Ġenthus": 8605,
      "zech": 8606,
      "ĠRecords": 8607,
      "ulpt": 8608,
      "clock": 8609,
      "asive": 8610,
      "umpy": 8611,
      "Ġminerals": 8612,
      "ampion": 8613,
      "ennis": 8614,
      "Ġneighborhood": 8615,
      "Ġnav": 8616,
      "Ġminister": 8617,
      "ĠDown": 8618,
      "Ġdreams": 8619,
      "Ġspending": 8620,
      "pread": 8621,
      "ko": 8622,
      "Ġavo": 8623,
      "Ġtoil": 8624,
      "Ġengaged": 8625,
      "Ġrestrict": 8626,
      "Ġcontrovers": 8627,
      "itudes": 8628,
      "Ġinjuries": 8629,
      "Soon": 8630,
      "ĠCambridge": 8631,
      "ji": 8632,
      "Ġexpansion": 8633,
      "Ġcoordin": 8634,
      "Ġcompound": 8635,
      "Ġ1964": 8636,
      "Ġarts": 8637,
      "hips": 8638,
      "Ġfewer": 8639,
      "Ġwhistle": 8640,
      "Ġrank": 8641,
      "Ġencouraged": 8642,
      "Ġtunnel": 8643,
      "Ġcomplications": 8644,
      "ĠBoard": 8645,
      "Ġelderly": 8646,
      "war": 8647,
      "Ġpermission": 8648,
      "Ġlid": 8649,
      "Ġearthquake": 8650,
      "Ġscrew": 8651,
      "Ġaccum": 8652,
      "Ġpine": 8653,
      "ĠBa": 8654,
      "III": 8655,
      "Ġsna": 8656,
      "64": 8657,
      "Ġflexible": 8658,
      "olesterol": 8659,
      "ymph": 8660,
      "idespread": 8661,
      "orge": 8662,
      "ifer": 8663,
      "Ġbreaking": 8664,
      "Ġtor": 8665,
      "Ġtut": 8666,
      "Ġwed": 8667,
      "Ġcompr": 8668,
      "Ġkidney": 8669,
      "Ġ400": 8670,
      "Ġraw": 8671,
      "Ġsizes": 8672,
      "Ġintake": 8673,
      "Ġhotel": 8674,
      "Ġnuts": 8675,
      "Ġsurrounded": 8676,
      "1998": 8677,
      "fa": 8678,
      "Ġgum": 8679,
      "Ġ150": 8680,
      "Ġgradually": 8681,
      "ifications": 8682,
      "amma": 8683,
      "IP": 8684,
      "Ġattacked": 8685,
      "Ġcough": 8686,
      "Ġstrike": 8687,
      "lements": 8688,
      "âĢĻ.": 8689,
      "Ġreaching": 8690,
      "ĠChi": 8691,
      "ĠMuslim": 8692,
      "adelphia": 8693,
      "Ġcourage": 8694,
      "Ġtreats": 8695,
      "elescope": 8696,
      "ĠAS": 8697,
      "Ġconfidence": 8698,
      "ĠCir": 8699,
      "Ġguilty": 8700,
      "Ġ2023": 8701,
      "Ġdressed": 8702,
      "Ġbits": 8703,
      "Ġcarrot": 8704,
      "ĠClub": 8705,
      "BA": 8706,
      "alo": 8707,
      "Ġinqu": 8708,
      "Ġbudget": 8709,
      "ĠBerlin": 8710,
      "ĠDid": 8711,
      "agle": 8712,
      "orted": 8713,
      "Ġwooden": 8714,
      "Ġgrace": 8715,
      "ĠMississippi": 8716,
      "aters": 8717,
      "ĠDef": 8718,
      "Ġobserve": 8719,
      "opter": 8720,
      "Ġtravell": 8721,
      "ĠGlobal": 8722,
      "Ġdecade": 8723,
      "Ġpip": 8724,
      "Ġfisher": 8725,
      "Ġlimits": 8726,
      "Ġimmediate": 8727,
      "Ġmood": 8728,
      "Ġcher": 8729,
      "Ġchoices": 8730,
      "Ġgenus": 8731,
      "Ġlaser": 8732,
      "ennes": 8733,
      "ĠJohnny": 8734,
      "Ġshells": 8735,
      "Ġugly": 8736,
      "ĠHelen": 8737,
      "ivery": 8738,
      "stract": 8739,
      "Ġ1967": 8740,
      "arming": 8741,
      "Ġremote": 8742,
      "ĠAdam": 8743,
      "mann": 8744,
      "Ġcharged": 8745,
      "Ġbreeding": 8746,
      "Ġcorpor": 8747,
      "ĠĠĠĠĠĠĠĠ": 8748,
      "Ġincredible": 8749,
      "Ġtexts": 8750,
      "Ġstairs": 8751,
      "vant": 8752,
      "Ġcelebrate": 8753,
      "Ġbeneath": 8754,
      "Ġbeans": 8755,
      "Ġpretended": 8756,
      "ĠBarb": 8757,
      "Ġlifted": 8758,
      "Ġbang": 8759,
      "Ġbreaks": 8760,
      "Help": 8761,
      "Ġintellect": 8762,
      "Ġevident": 8763,
      "Ġille": 8764,
      "Ġwww": 8765,
      "dess": 8766,
      "OW": 8767,
      "ĠEnvironmental": 8768,
      "Ġdeeper": 8769,
      "ĠWW": 8770,
      "ipedia": 8771,
      "ĠSpecial": 8772,
      "Ġtheme": 8773,
      "Ġexped": 8774,
      "Ġfalse": 8775,
      "Ġ;": 8776,
      "Ġevolved": 8777,
      "Ġparas": 8778,
      "UT": 8779,
      "ĠDisease": 8780,
      "owa": 8781,
      "ĠGoogle": 8782,
      "Ġdefeated": 8783,
      "Ġinternet": 8784,
      "Ġrooms": 8785,
      "Ġaqu": 8786,
      "ĠDuke": 8787,
      "Ġdedicated": 8788,
      "thesis": 8789,
      "Ġpolar": 8790,
      "ĠTake": 8791,
      "Ġpainter": 8792,
      "igned": 8793,
      "Ġsections": 8794,
      "etics": 8795,
      "ĠHoly": 8796,
      "heric": 8797,
      "ĠConne": 8798,
      "ĠUl": 8799,
      "Ġdesigns": 8800,
      "uer": 8801,
      "Ġworst": 8802,
      "Ġinteraction": 8803,
      "Ġashamed": 8804,
      "Med": 8805,
      "ĠJake": 8806,
      "Ġfacilit": 8807,
      "ĠVietnam": 8808,
      "Ġmanufacturing": 8809,
      "tenance": 8810,
      "Ġgovernor": 8811,
      "Ġcelebrated": 8812,
      "Ġconstructed": 8813,
      "ultural": 8814,
      "Ġoutdo": 8815,
      "ĠManagement": 8816,
      "IL": 8817,
      "jected": 8818,
      "Ġattempts": 8819,
      "Ġassistance": 8820,
      "ĠJon": 8821,
      "ĠAssembly": 8822,
      "Ġprize": 8823,
      "Ġtasted": 8824,
      "Ġgases": 8825,
      "Ġemotions": 8826,
      "Ġ65": 8827,
      "ĠMid": 8828,
      "Ġmor": 8829,
      "Ġrecognition": 8830,
      "Ġspiritual": 8831,
      "Ġhurry": 8832,
      "neum": 8833,
      "bel": 8834,
      "ĠWhe": 8835,
      "Ġcattle": 8836,
      "Ġweird": 8837,
      "Ġtheore": 8838,
      "ĠHawai": 8839,
      "Ġdates": 8840,
      "Ġinvestment": 8841,
      "Ġmechanical": 8842,
      "ĠLind": 8843,
      "haust": 8844,
      "Ġcolonies": 8845,
      "Ġyog": 8846,
      "Ġresolution": 8847,
      "Ġsorts": 8848,
      "Ġpencil": 8849,
      "Ġinvolving": 8850,
      "Ġforty": 8851,
      "Ġbrand": 8852,
      "Ġbron": 8853,
      "Ġcomposer": 8854,
      "Ġlungs": 8855,
      "ĠColon": 8856,
      "ĠâĨĴ": 8857,
      "Ġdiameter": 8858,
      "Ġshoe": 8859,
      "ĠEgyptian": 8860,
      "Ġmonitor": 8861,
      "Ġdisappointed": 8862,
      "ĠPM": 8863,
      "Ġstrongly": 8864,
      "ĠDor": 8865,
      "Ġconclusion": 8866,
      "tha": 8867,
      "|}": 8868,
      "Ġtrucks": 8869,
      "Ġprincipal": 8870,
      "ĠDick": 8871,
      "Ġgrows": 8872,
      "Ġdebate": 8873,
      "British": 8874,
      "Ġcontamin": 8875,
      "Ġgolden": 8876,
      "break": 8877,
      "bey": 8878,
      "ĠTony": 8879,
      "Ġcaterpillar": 8880,
      "iy": 8881,
      "asm": 8882,
      "Ġplot": 8883,
      "Ġlocked": 8884,
      "lyn": 8885,
      "Ġstack": 8886,
      "Ġinsect": 8887,
      "Ġfolk": 8888,
      "Ġwidespread": 8889,
      "ĠOper": 8890,
      "2015": 8891,
      "Ġproof": 8892,
      "Ġturtle": 8893,
      "arts": 8894,
      "Ġultimately": 8895,
      "Ġthorough": 8896,
      "Ġsupplement": 8897,
      "Ġtheories": 8898,
      "ettle": 8899,
      "ĠAdminist": 8900,
      "dad": 8901,
      "Ġadopt": 8902,
      "ĠKar": 8903,
      "Ġsink": 8904,
      "Ġdistricts": 8905,
      "Ġroughly": 8906,
      "Fl": 8907,
      "Ġdent": 8908,
      "ĠLine": 8909,
      "Ġtransition": 8910,
      "ontal": 8911,
      "Ġbiology": 8912,
      "Ġcomparison": 8913,
      "Ġbands": 8914,
      "three": 8915,
      "ĠPolish": 8916,
      "ĠPubl": 8917,
      "Ġsour": 8918,
      "Ġdolph": 8919,
      "power": 8920,
      "rene": 8921,
      "Ġmedication": 8922,
      "ĠWilliams": 8923,
      "Ġnecklace": 8924,
      "Ġconnections": 8925,
      "olt": 8926,
      "ĠFair": 8927,
      "Ġchased": 8928,
      "Ġninet": 8929,
      "Ġskull": 8930,
      "Ġfurry": 8931,
      "ĠLeg": 8932,
      "five": 8933,
      "Ġjoke": 8934,
      "Ġdies": 8935,
      "earing": 8936,
      "ĠSong": 8937,
      "Ġnom": 8938,
      "ĠLew": 8939,
      "ĠLast": 8940,
      "Ġprev": 8941,
      "Peter": 8942,
      "Ġcoun": 8943,
      "ĊĠĊ": 8944,
      "ĠCentre": 8945,
      "Ġsought": 8946,
      "Ġbio": 8947,
      "Ġreader": 8948,
      "Ġbiod": 8949,
      "Ġvs": 8950,
      "Ġcrash": 8951,
      "Ġpeoples": 8952,
      "Pr": 8953,
      "Ġbelonged": 8954,
      "uced": 8955,
      "Ġglue": 8956,
      "Ġcage": 8957,
      "83": 8958,
      "Ġminim": 8959,
      "Ġmammals": 8960,
      "Ġtidy": 8961,
      "CAR": 8962,
      "Ġstrict": 8963,
      "Ġterror": 8964,
      "ollowing": 8965,
      "Ġpowder": 8966,
      "Ġsupports": 8967,
      "Ġimproving": 8968,
      "Spe": 8969,
      "Ġcompass": 8970,
      "Ġhears": 8971,
      "Ġargue": 8972,
      "Ġgenerous": 8973,
      "Ġtap": 8974,
      "cuse": 8975,
      "puter": 8976,
      "ipper": 8977,
      "open": 8978,
      "Ġbelongs": 8979,
      "ĠExper": 8980,
      "Ġcash": 8981,
      "Ġanybody": 8982,
      "after": 8983,
      "Ġengage": 8984,
      "igue": 8985,
      "about": 8986,
      "ideo": 8987,
      "ashes": 8988,
      "1997": 8989,
      "Ġcolony": 8990,
      "Ġcries": 8991,
      "ĠRepublican": 8992,
      "ĠLes": 8993,
      "Ġengines": 8994,
      "singing": 8995,
      "ieties": 8996,
      "Ġfiber": 8997,
      "Ġheavily": 8998,
      "Ġofficially": 8999,
      "ĠLady": 9000,
      "green": 9001,
      "ĠEqu": 9002,
      "Ġbelt": 9003,
      "aturday": 9004,
      "Ġghost": 9005,
      "Ġdischar": 9006,
      "Ġentry": 9007,
      "ĠExt": 9008,
      "irus": 9009,
      "ĠNut": 9010,
      "Ġsculpt": 9011,
      "Ġrelation": 9012,
      "Ġnecessarily": 9013,
      "About": 9014,
      "Ġdrought": 9015,
      "anas": 9016,
      "ags": 9017,
      "eria": 9018,
      "Ġadj": 9019,
      "Ġforgotten": 9020,
      "ĠBad": 9021,
      "ĠOpen": 9022,
      "ĠOrder": 9023,
      "Ġversions": 9024,
      "Ġbroadcast": 9025,
      "engers": 9026,
      "Ġimmigr": 9027,
      "ĠDec": 9028,
      "Ġopposed": 9029,
      "Ġvessel": 9030,
      "ĠSwedish": 9031,
      "ĠLeo": 9032,
      "Ġconsiderable": 9033,
      "esity": 9034,
      "ĠTok": 9035,
      "ĠNetwork": 9036,
      "Ġcomplicated": 9037,
      "Ġenhance": 9038,
      "Ġgarage": 9039,
      "Ġrig": 9040,
      "four": 9041,
      "asts": 9042,
      "Ġbubbles": 9043,
      "Ġwashed": 9044,
      "ĠIP": 9045,
      "ĠUncle": 9046,
      "Ġfarming": 9047,
      "Figure": 9048,
      "ĠPope": 9049,
      "Ġbless": 9050,
      "Ġvocal": 9051,
      "Ġfrightened": 9052,
      "abled": 9053,
      "Ġthreatened": 9054,
      "Ġconcrete": 9055,
      "Writ": 9056,
      "Ġfiction": 9057,
      "Ġemployed": 9058,
      "Ġsucceeded": 9059,
      "Ġeditor": 9060,
      "Ġfrequent": 9061,
      "Ġconsistent": 9062,
      "Ġbitter": 9063,
      "ĠNever": 9064,
      "abel": 9065,
      "Ġmeasurements": 9066,
      "ĠClimate": 9067,
      "Ġawarded": 9068,
      "estine": 9069,
      "Ġcategories": 9070,
      "Ġgravity": 9071,
      "Ġmixture": 9072,
      "lete": 9073,
      "Ġdownload": 9074,
      "fit": 9075,
      "Ġbored": 9076,
      "apse": 9077,
      "izz": 9078,
      "comp": 9079,
      "Ġsurre": 9080,
      "Ġmonarch": 9081,
      "ocy": 9082,
      "uctor": 9083,
      "Ġengineer": 9084,
      "ĠHun": 9085,
      "ĠOtt": 9086,
      "Ġfaced": 9087,
      "CE": 9088,
      "ĠIT": 9089,
      "rooms": 9090,
      "Ġprisoners": 9091,
      "urches": 9092,
      "Ġriding": 9093,
      "ĠArthur": 9094,
      "Ġsailed": 9095,
      "plane": 9096,
      "isse": 9097,
      "Ġequation": 9098,
      "1996": 9099,
      "84": 9100,
      "Ġpand": 9101,
      "ĠAcc": 9102,
      "agen": 9103,
      "vard": 9104,
      "ĠDig": 9105,
      "ibl": 9106,
      "Ġnegot": 9107,
      "Ġexecutive": 9108,
      "Ġturb": 9109,
      "Ġnewly": 9110,
      "rine": 9111,
      "iva": 9112,
      "Ġmeasurement": 9113,
      "Ġshelter": 9114,
      "being": 9115,
      "ĠIndepend": 9116,
      "Ġrarely": 9117,
      "Ġsymbols": 9118,
      "Ġseal": 9119,
      "Ġpalace": 9120,
      "sis": 9121,
      "Ã§": 9122,
      "ervative": 9123,
      "Ġdatabase": 9124,
      "oding": 9125,
      "ographical": 9126,
      "itals": 9127,
      "ĠUt": 9128,
      "Ġprevention": 9129,
      "omed": 9130,
      "ĠLow": 9131,
      "anz": 9132,
      "ema": 9133,
      "ĠAgricult": 9134,
      "ĠBell": 9135,
      "ĠRoss": 9136,
      "Ġbehaviors": 9137,
      "Ġ1948": 9138,
      "FC": 9139,
      "ĠMain": 9140,
      "Ġchamber": 9141,
      "Ġfactory": 9142,
      "Ġmolecular": 9143,
      "Ġ33": 9144,
      "Ġforming": 9145,
      "Ġelections": 9146,
      "Ġnick": 9147,
      "ĠDirector": 9148,
      "Ġenable": 9149,
      "Sm": 9150,
      "ĠAunt": 9151,
      "riers": 9152,
      "Ġclassical": 9153,
      "Ġstores": 9154,
      "Ġbusinesses": 9155,
      "Sarah": 9156,
      "Ġma": 9157,
      "Ġol": 9158,
      "ĠDie": 9159,
      "hav": 9160,
      "Ġoutcomes": 9161,
      "rimination": 9162,
      "National": 9163,
      "Ġkissed": 9164,
      "El": 9165,
      "Ġlosing": 9166,
      "ĠAustrian": 9167,
      "Ġnutrition": 9168,
      "Ġvictims": 9169,
      "AA": 9170,
      "2016": 9171,
      "Lila": 9172,
      "Ġrings": 9173,
      "position": 9174,
      "Ġinfrastructure": 9175,
      "Ġsplash": 9176,
      "bean": 9177,
      "Ġsurfaces": 9178,
      "wow": 9179,
      "ealous": 9180,
      "ĠAk": 9181,
      "ĠGall": 9182,
      "2019": 9183,
      "shire": 9184,
      "Ġoperate": 9185,
      "heimer": 9186,
      "class": 9187,
      "....": 9188,
      "Ġrecept": 9189,
      "word": 9190,
      "Ġhadn": 9191,
      "Ġcounting": 9192,
      "Ġherb": 9193,
      "terest": 9194,
      "Ġkeys": 9195,
      "ĠInf": 9196,
      "ĠAwards": 9197,
      "ĠColorado": 9198,
      "Ġfacing": 9199,
      "Ġpeak": 9200,
      "Ġdirections": 9201,
      "apy": 9202,
      "Ġwashing": 9203,
      "rive": 9204,
      "Ġthou": 9205,
      "Ġsurve": 9206,
      "Ġchew": 9207,
      "Ġhistoric": 9208,
      "ML": 9209,
      "ika": 9210,
      "German": 9211,
      "Ġnort": 9212,
      "Ġgenerations": 9213,
      "Ġmathematical": 9214,
      "akh": 9215,
      "Ġcommitted": 9216,
      "ieval": 9217,
      "EM": 9218,
      "Ġregarded": 9219,
      "Ġadvert": 9220,
      "Ġoccupied": 9221,
      "ĠMP": 9222,
      "ĠCreek": 9223,
      "Ġprime": 9224,
      "Ġbanana": 9225,
      "Ġ1965": 9226,
      "Ġscar": 9227,
      "Ġpicking": 9228,
      "Ġvideos": 9229,
      "fecture": 9230,
      "Ġaccompan": 9231,
      "ĠIndones": 9232,
      "Ġchap": 9233,
      "Ġbeings": 9234,
      "Ġcontrols": 9235,
      "ĠPas": 9236,
      "ĠJun": 9237,
      "ĠArctic": 9238,
      "Ġrefuge": 9239,
      "Ġgranted": 9240,
      "APTER": 9241,
      "ĠTurkey": 9242,
      "Rem": 9243,
      "Ġcommission": 9244,
      "ĠFall": 9245,
      "Ġmode": 9246,
      "keeper": 9247,
      "Ġsmoking": 9248,
      "sur": 9249,
      "rant": 9250,
      "Ġmystery": 9251,
      "uper": 9252,
      "ĠLo": 9253,
      "Ġdisag": 9254,
      "Ġshadow": 9255,
      "ributes": 9256,
      "Ġlip": 9257,
      "ĠArts": 9258,
      "ĠPhiladelphia": 9259,
      "ao": 9260,
      "Ġdriven": 9261,
      "Ġchromos": 9262,
      "eor": 9263,
      "Ġexhaust": 9264,
      "Ġbloom": 9265,
      "usions": 9266,
      "Ġdipl": 9267,
      "Ġbatteries": 9268,
      "ĠTeddy": 9269,
      "ogy": 9270,
      "Ġhammer": 9271,
      "Ġah": 9272,
      "ĠWin": 9273,
      "Ġstreets": 9274,
      "ĠHead": 9275,
      "ardens": 9276,
      "Ġcarb": 9277,
      "Ġinspired": 9278,
      "Ġcompare": 9279,
      "Ġrespiratory": 9280,
      "Ġchim": 9281,
      "ĠGulf": 9282,
      "Ġ1942": 9283,
      "Ġconventional": 9284,
      "Ġ>": 9285,
      "Ġ1941": 9286,
      "ĠMinnes": 9287,
      "Ġworkshe": 9288,
      "Ġsociet": 9289,
      "Ġcotton": 9290,
      "Ġregist": 9291,
      "63": 9292,
      "Ġmechanisms": 9293,
      "olitan": 9294,
      "Ġbeneficial": 9295,
      "ĠWars": 9296,
      "ĠFed": 9297,
      "umbled": 9298,
      "Joe": 9299,
      "Ġappeal": 9300,
      "Ġacknow": 9301,
      "Ġglucose": 9302,
      "erted": 9303,
      "tell": 9304,
      "Ġpersonality": 9305,
      "Ġestimate": 9306,
      "Ġagencies": 9307,
      "Ġdefense": 9308,
      "ĠLiter": 9309,
      "aylor": 9310,
      "Ġsleepy": 9311,
      "ĠNap": 9312,
      "Ġcategory": 9313,
      "ĠGuide": 9314,
      "Ġcrocod": 9315,
      "Ġgap": 9316,
      "Ġbadly": 9317,
      "Ġpole": 9318,
      "ÅĵI": 9319,
      "Gu": 9320,
      "Ġdelivered": 9321,
      "Ġboring": 9322,
      "ranean": 9323,
      "Ġabsence": 9324,
      "scale": 9325,
      "Ġexamined": 9326,
      "ĠDesign": 9327,
      "ĠCharlie": 9328,
[...]
